{
  "version": "1.0",
  "truncation": null,
  "padding": null,
  "added_tokens": [
    {
      "id": 0,
      "content": "[UNK]",
      "single_word": false,
      "lstrip": false,
      "rstrip": false,
      "normalized": false,
      "special": true
    },
    {
      "id": 1,
      "content": "[CLS]",
      "single_word": false,
      "lstrip": false,
      "rstrip": false,
      "normalized": false,
      "special": true
    },
    {
      "id": 2,
      "content": "[SEP]",
      "single_word": false,
      "lstrip": false,
      "rstrip": false,
      "normalized": false,
      "special": true
    },
    {
      "id": 3,
      "content": "[PAD]",
      "single_word": false,
      "lstrip": false,
      "rstrip": false,
      "normalized": false,
      "special": true
    },
    {
      "id": 4,
      "content": "[MASK]",
      "single_word": false,
      "lstrip": false,
      "rstrip": false,
      "normalized": false,
      "special": true
    }
  ],
  "normalizer": null,
  "pre_tokenizer": {
    "type": "UnicodeScripts"
  },
  "post_processor": null,
  "decoder": null,
  "model": {
    "type": "BPE",
    "dropout": null,
    "unk_token": "[UNK]",
    "continuing_subword_prefix": null,
    "end_of_word_suffix": null,
    "fuse_unk": false,
    "byte_fallback": false,
    "ignore_merges": false,
    "vocab": {
      "[UNK]": 0,
      "[CLS]": 1,
      "[SEP]": 2,
      "[PAD]": 3,
      "[MASK]": 4,
      "\n": 5,
      "/": 6,
      "1": 7,
      "?": 8,
      "L": 9,
      "e": 10,
      "t": 11,
      "x": 12,
      "{": 13,
      "}": 14,
      "—": 15,
      "“": 16,
      "”": 17,
      "•": 18,
      "…": 19,
      "■": 20,
      "□": 21,
      "◆": 22,
      "◇": 23,
      "○": 24,
      "●": 25,
      "⾙": 26,
      "、": 27,
      "。": 28,
      "々": 29,
      "《": 30,
      "》": 31,
      "「": 32,
      "」": 33,
      "『": 34,
      "』": 35,
      "〖": 36,
      "〗": 37,
      "び": 38,
      "ㄚ": 39,
      "ㄠ": 40,
      "㐲": 41,
      "㑃": 42,
      "㒒": 43,
      "㒟": 44,
      "㒧": 45,
      "㒩": 46,
      "㒿": 47,
      "㓢": 48,
      "㔉": 49,
      "㔩": 50,
      "㕒": 51,
      "㕙": 52,
      "㕠": 53,
      "㕧": 54,
      "㕮": 55,
      "㖀": 56,
      "㖃": 57,
      "㖟": 58,
      "㖿": 59,
      "㗀": 60,
      "㗋": 61,
      "㗫": 62,
      "㗭": 63,
      "㗲": 64,
      "㗳": 65,
      "㗶": 66,
      "㗻": 67,
      "㘅": 68,
      "㘆": 69,
      "㘖": 70,
      "㘘": 71,
      "㘭": 72,
      "㘱": 73,
      "㙠": 74,
      "㙡": 75,
      "㙮": 76,
      "㙻": 77,
      "㚟": 78,
      "㛁": 79,
      "㛹": 80,
      "㛺": 81,
      "㜎": 82,
      "㜑": 83,
      "㜕": 84,
      "㜞": 85,
      "㜪": 86,
      "㜮": 87,
      "㜷": 88,
      "㝢": 89,
      "㝱": 90,
      "㞐": 91,
      "㟅": 92,
      "㟍": 93,
      "㟏": 94,
      "㟙": 95,
      "㟝": 96,
      "㟞": 97,
      "㟢": 98,
      "㟳": 99,
      "㟽": 100,
      "㠂": 101,
      "㠉": 102,
      "㠊": 103,
      "㠋": 104,
      "㠍": 105,
      "㠐": 106,
      "㠔": 107,
      "㠝": 108,
      "㠯": 109,
      "㠹": 110,
      "㡓": 111,
      "㡚": 112,
      "㡛": 113,
      "㡜": 114,
      "㡠": 115,
      "㡢": 116,
      "㡧": 117,
      "㡩": 118,
      "㡳": 119,
      "㢋": 120,
      "㢝": 121,
      "㢮": 122,
      "㤯": 123,
      "㦨": 124,
      "㦬": 125,
      "㧎": 126,
      "㧙": 127,
      "㧹": 128,
      "㨂": 129,
      "㨖": 130,
      "㨿": 131,
      "㩀": 132,
      "㩗": 133,
      "㩜": 134,
      "㩦": 135,
      "㩧": 136,
      "㩳": 137,
      "㩻": 138,
      "㪍": 139,
      "㪷": 140,
      "㪺": 141,
      "㫄": 142,
      "㫋": 143,
      "㫝": 144,
      "㫪": 145,
      "㫰": 146,
      "㬅": 147,
      "㬉": 148,
      "㬋": 149,
      "㬌": 150,
      "㬒": 151,
      "㬠": 152,
      "㬢": 153,
      "㬻": 154,
      "㭊": 155,
      "㭨": 156,
      "㭬": 157,
      "㭺": 158,
      "㮬": 159,
      "㮰": 160,
      "㯃": 161,
      "㯍": 162,
      "㯓": 163,
      "㰅": 164,
      "㰕": 165,
      "㰱": 166,
      "㱔": 167,
      "㲉": 168,
      "㲚": 169,
      "㲞": 170,
      "㲣": 171,
      "㲨": 172,
      "㲪": 173,
      "㲯": 174,
      "㲲": 175,
      "㲼": 176,
      "㳇": 177,
      "㳙": 178,
      "㳟": 179,
      "㳷": 180,
      "㴑": 181,
      "㴞": 182,
      "㴩": 183,
      "㴸": 184,
      "㵎": 185,
      "㵐": 186,
      "㵘": 187,
      "㵝": 188,
      "㵳": 189,
      "㵵": 190,
      "㵾": 191,
      "㵿": 192,
      "㶁": 193,
      "㶏": 194,
      "㶟": 195,
      "㶴": 196,
      "㶿": 197,
      "㷭": 198,
      "㸌": 199,
      "㸐": 200,
      "㸙": 201,
      "㸦": 202,
      "㹀": 203,
      "㹞": 204,
      "㹠": 205,
      "㹱": 206,
      "㺄": 207,
      "㺦": 208,
      "㻞": 209,
      "㽛": 210,
      "㾌": 211,
      "㾓": 212,
      "㾕": 213,
      "㾪": 214,
      "㿉": 215,
      "㿻": 216,
      "䀝": 217,
      "䀟": 218,
      "䀨": 219,
      "䀻": 220,
      "䁭": 221,
      "䂑": 222,
      "䂘": 223,
      "䂭": 224,
      "䃘": 225,
      "䃣": 226,
      "䃤": 227,
      "䃱": 228,
      "䃹": 229,
      "䄌": 230,
      "䄖": 231,
      "䄠": 232,
      "䄡": 233,
      "䄩": 234,
      "䄺": 235,
      "䅊": 236,
      "䆉": 237,
      "䆒": 238,
      "䆗": 239,
      "䆫": 240,
      "䆳": 241,
      "䆿": 242,
      "䇄": 243,
      "䇢": 244,
      "䇶": 245,
      "䈂": 246,
      "䈝": 247,
      "䈡": 248,
      "䈥": 249,
      "䈻": 250,
      "䉡": 251,
      "䉬": 252,
      "䉲": 253,
      "䊵": 254,
      "䊶": 255,
      "䋏": 256,
      "䋞": 257,
      "䌌": 258,
      "䌓": 259,
      "䌖": 260,
      "䌥": 261,
      "䌨": 262,
      "䌫": 263,
      "䍐": 264,
      "䍙": 265,
      "䍠": 266,
      "䍡": 267,
      "䍣": 268,
      "䍥": 269,
      "䍦": 270,
      "䍧": 271,
      "䍲": 272,
      "䍽": 273,
      "䎒": 274,
      "䎳": 275,
      "䏑": 276,
      "䏰": 277,
      "䏶": 278,
      "䐑": 279,
      "䐪": 280,
      "䑃": 281,
      "䑔": 282,
      "䑜": 283,
      "䑠": 284,
      "䑦": 285,
      "䑨": 286,
      "䑩": 287,
      "䑳": 288,
      "䑸": 289,
      "䑽": 290,
      "䒀": 291,
      "䒁": 292,
      "䒖": 293,
      "䒠": 294,
      "䒶": 295,
      "䓁": 296,
      "䓇": 297,
      "䓑": 298,
      "䓤": 299,
      "䓿": 300,
      "䔄": 301,
      "䔋": 302,
      "䔍": 303,
      "䔒": 304,
      "䔥": 305,
      "䔩": 306,
      "䔫": 307,
      "䔲": 308,
      "䔿": 309,
      "䕟": 310,
      "䕠": 311,
      "䕡": 312,
      "䕷": 313,
      "䕸": 314,
      "䖃": 315,
      "䖘": 316,
      "䖟": 317,
      "䖦": 318,
      "䖴": 319,
      "䖹": 320,
      "䗁": 321,
      "䗂": 322,
      "䗈": 323,
      "䗫": 324,
      "䗲": 325,
      "䗶": 326,
      "䗽": 327,
      "䘍": 328,
      "䘲": 329,
      "䘵": 330,
      "䙀": 331,
      "䙏": 332,
      "䙚": 333,
      "䙰": 334,
      "䚢": 335,
      "䚧": 336,
      "䛏": 337,
      "䛒": 338,
      "䛡": 339,
      "䜛": 340,
      "䜝": 341,
      "䜤": 342,
      "䝟": 343,
      "䝠": 344,
      "䝤": 345,
      "䝼": 346,
      "䞉": 347,
      "䟃": 348,
      "䟎": 349,
      "䟕": 350,
      "䟤": 351,
      "䟫": 352,
      "䠞": 353,
      "䠥": 354,
      "䡌": 355,
      "䡾": 356,
      "䢇": 357,
      "䢜": 358,
      "䢴": 359,
      "䢵": 360,
      "䣊": 361,
      "䣕": 362,
      "䣛": 363,
      "䣢": 364,
      "䤑": 365,
      "䤙": 366,
      "䥫": 367,
      "䦧": 368,
      "䧆": 369,
      "䧏": 370,
      "䧙": 371,
      "䧜": 372,
      "䧺": 373,
      "䨥": 374,
      "䨮": 375,
      "䨴": 376,
      "䩋": 377,
      "䩐": 378,
      "䩕": 379,
      "䩫": 380,
      "䩬": 381,
      "䪌": 382,
      "䪓": 383,
      "䪥": 384,
      "䪧": 385,
      "䪹": 386,
      "䪺": 387,
      "䪻": 388,
      "䪿": 389,
      "䫉": 390,
      "䫌": 391,
      "䫜": 392,
      "䫻": 393,
      "䬃": 394,
      "䬝": 395,
      "䬦": 396,
      "䭀": 397,
      "䭃": 398,
      "䭔": 399,
      "䭾": 400,
      "䭿": 401,
      "䮍": 402,
      "䮐": 403,
      "䮺": 404,
      "䯀": 405,
      "䯄": 406,
      "䯰": 407,
      "䯲": 408,
      "䯳": 409,
      "䯻": 410,
      "䰀": 411,
      "䰂": 412,
      "䰄": 413,
      "䰐": 414,
      "䰒": 415,
      "䰟": 416,
      "䱁": 417,
      "䱇": 418,
      "䱉": 419,
      "䱐": 420,
      "䱥": 421,
      "䱹": 422,
      "䱽": 423,
      "䲔": 424,
      "䲭": 425,
      "䲹": 426,
      "䲺": 427,
      "䳇": 428,
      "䳏": 429,
      "䳒": 430,
      "䳵": 431,
      "䳺": 432,
      "䳽": 433,
      "䴏": 434,
      "䴚": 435,
      "䴠": 436,
      "䴥": 437,
      "䴮": 438,
      "䴵": 439,
      "䴺": 440,
      "䵠": 441,
      "䵩": 442,
      "䶉": 443,
      "䶎": 444,
      "一": 445,
      "丁": 446,
      "七": 447,
      "万": 448,
      "丈": 449,
      "三": 450,
      "上": 451,
      "下": 452,
      "丌": 453,
      "不": 454,
      "与": 455,
      "丏": 456,
      "丐": 457,
      "丑": 458,
      "专": 459,
      "且": 460,
      "丕": 461,
      "世": 462,
      "丘": 463,
      "丙": 464,
      "业": 465,
      "丛": 466,
      "东": 467,
      "丝": 468,
      "丞": 469,
      "丢": 470,
      "两": 471,
      "严": 472,
      "丧": 473,
      "丨": 474,
      "个": 475,
      "丫": 476,
      "中": 477,
      "丰": 478,
      "丱": 479,
      "串": 480,
      "丳": 481,
      "临": 482,
      "丸": 483,
      "丹": 484,
      "为": 485,
      "主": 486,
      "丼": 487,
      "丽": 488,
      "举": 489,
      "丿": 490,
      "乀": 491,
      "乂": 492,
      "乃": 493,
      "久": 494,
      "么": 495,
      "义": 496,
      "之": 497,
      "乌": 498,
      "乍": 499,
      "乎": 500,
      "乏": 501,
      "乐": 502,
      "乒": 503,
      "乓": 504,
      "乔": 505,
      "乖": 506,
      "乘": 507,
      "乙": 508,
      "乜": 509,
      "九": 510,
      "乞": 511,
      "也": 512,
      "习": 513,
      "乡": 514,
      "书": 515,
      "乩": 516,
      "买": 517,
      "乱": 518,
      "乳": 519,
      "乽": 520,
      "乾": 521,
      "了": 522,
      "亇": 523,
      "予": 524,
      "争": 525,
      "事": 526,
      "二": 527,
      "亍": 528,
      "于": 529,
      "亏": 530,
      "云": 531,
      "互": 532,
      "五": 533,
      "井": 534,
      "亘": 535,
      "亚": 536,
      "些": 537,
      "亝": 538,
      "亟": 539,
      "亡": 540,
      "亢": 541,
      "交": 542,
      "亥": 543,
      "亦": 544,
      "产": 545,
      "亨": 546,
      "亩": 547,
      "享": 548,
      "京": 549,
      "亭": 550,
      "亮": 551,
      "亲": 552,
      "亳": 553,
      "亵": 554,
      "亶": 555,
      "亸": 556,
      "亹": 557,
      "人": 558,
      "亿": 559,
      "什": 560,
      "仁": 561,
      "仃": 562,
      "仄": 563,
      "仅": 564,
      "仆": 565,
      "仇": 566,
      "今": 567,
      "介": 568,
      "仍": 569,
      "从": 570,
      "仑": 571,
      "仓": 572,
      "仔": 573,
      "仕": 574,
      "他": 575,
      "仗": 576,
      "付": 577,
      "仙": 578,
      "仝": 579,
      "仞": 580,
      "仡": 581,
      "代": 582,
      "令": 583,
      "以": 584,
      "仨": 585,
      "仪": 586,
      "们": 587,
      "仰": 588,
      "仱": 589,
      "仲": 590,
      "仳": 591,
      "仵": 592,
      "件": 593,
      "价": 594,
      "仹": 595,
      "任": 596,
      "仼": 597,
      "份": 598,
      "仿": 599,
      "企": 600,
      "伃": 601,
      "伈": 602,
      "伉": 603,
      "伊": 604,
      "伋": 605,
      "伍": 606,
      "伎": 607,
      "伏": 608,
      "伐": 609,
      "休": 610,
      "众": 611,
      "优": 612,
      "伙": 613,
      "会": 614,
      "伛": 615,
      "伞": 616,
      "伟": 617,
      "传": 618,
      "伢": 619,
      "伣": 620,
      "伤": 621,
      "伥": 622,
      "伦": 623,
      "伧": 624,
      "伪": 625,
      "伫": 626,
      "伯": 627,
      "估": 628,
      "伴": 629,
      "伶": 630,
      "伸": 631,
      "伹": 632,
      "伺": 633,
      "伻": 634,
      "似": 635,
      "伽": 636,
      "伾": 637,
      "佃": 638,
      "但": 639,
      "佌": 640,
      "位": 641,
      "低": 642,
      "住": 643,
      "佐": 644,
      "佑": 645,
      "佒": 646,
      "体": 647,
      "佔": 648,
      "何": 649,
      "佗": 650,
      "佘": 651,
      "余": 652,
      "佚": 653,
      "佛": 654,
      "作": 655,
      "佝": 656,
      "佞": 657,
      "佟": 658,
      "你": 659,
      "佣": 660,
      "佥": 661,
      "佩": 662,
      "佪": 663,
      "佬": 664,
      "佯": 665,
      "佳": 666,
      "佶": 667,
      "佺": 668,
      "佻": 669,
      "佼": 670,
      "佽": 671,
      "佾": 672,
      "使": 673,
      "侁": 674,
      "侂": 675,
      "侃": 676,
      "侄": 677,
      "侅": 678,
      "侈": 679,
      "侉": 680,
      "例": 681,
      "侍": 682,
      "侏": 683,
      "侐": 684,
      "侑": 685,
      "侔": 686,
      "侗": 687,
      "侘": 688,
      "供": 689,
      "侜": 690,
      "依": 691,
      "侠": 692,
      "侣": 693,
      "侥": 694,
      "侦": 695,
      "侧": 696,
      "侨": 697,
      "侩": 698,
      "侪": 699,
      "侬": 700,
      "侮": 701,
      "侯": 702,
      "侵": 703,
      "便": 704,
      "俀": 705,
      "促": 706,
      "俄": 707,
      "俅": 708,
      "俇": 709,
      "俊": 710,
      "俋": 711,
      "俎": 712,
      "俏": 713,
      "俐": 714,
      "俑": 715,
      "俗": 716,
      "俘": 717,
      "俙": 718,
      "俚": 719,
      "俛": 720,
      "俜": 721,
      "保": 722,
      "俞": 723,
      "俟": 724,
      "信": 725,
      "俣": 726,
      "俦": 727,
      "俨": 728,
      "俩": 729,
      "俪": 730,
      "俭": 731,
      "修": 732,
      "俯": 733,
      "俱": 734,
      "俳": 735,
      "俵": 736,
      "俶": 737,
      "俸": 738,
      "俺": 739,
      "俾": 740,
      "倅": 741,
      "倌": 742,
      "倍": 743,
      "倏": 744,
      "倒": 745,
      "倔": 746,
      "倕": 747,
      "倖": 748,
      "倘": 749,
      "候": 750,
      "倚": 751,
      "倛": 752,
      "倜": 753,
      "借": 754,
      "倡": 755,
      "倢": 756,
      "倥": 757,
      "倦": 758,
      "倨": 759,
      "倩": 760,
      "倪": 761,
      "倬": 762,
      "倭": 763,
      "倴": 764,
      "债": 765,
      "值": 766,
      "倾": 767,
      "倿": 768,
      "偃": 769,
      "偅": 770,
      "假": 771,
      "偈": 772,
      "偊": 773,
      "偌": 774,
      "偍": 775,
      "偎": 776,
      "偏": 777,
      "偓": 778,
      "偕": 779,
      "做": 780,
      "停": 781,
      "偟": 782,
      "健": 783,
      "偩": 784,
      "偪": 785,
      "偬": 786,
      "偲": 787,
      "偶": 788,
      "偷": 789,
      "偻": 790,
      "偾": 791,
      "偿": 792,
      "傀": 793,
      "傃": 794,
      "傅": 795,
      "傋": 796,
      "傍": 797,
      "傒": 798,
      "傔": 799,
      "傝": 800,
      "傞": 801,
      "傣": 802,
      "傤": 803,
      "傥": 804,
      "傧": 805,
      "储": 806,
      "傩": 807,
      "傪": 808,
      "傫": 809,
      "催": 810,
      "傲": 811,
      "傺": 812,
      "傻": 813,
      "僇": 814,
      "僎": 815,
      "像": 816,
      "僖": 817,
      "僚": 818,
      "僛": 819,
      "僝": 820,
      "僠": 821,
      "僣": 822,
      "僦": 823,
      "僧": 824,
      "僩": 825,
      "僬": 826,
      "僭": 827,
      "僮": 828,
      "僯": 829,
      "僰": 830,
      "僲": 831,
      "僵": 832,
      "僶": 833,
      "僷": 834,
      "僸": 835,
      "僻": 836,
      "僽": 837,
      "僾": 838,
      "僿": 839,
      "儃": 840,
      "儆": 841,
      "儇": 842,
      "儋": 843,
      "儒": 844,
      "儓": 845,
      "儗": 846,
      "儚": 847,
      "儜": 848,
      "儡": 849,
      "儤": 850,
      "儦": 851,
      "儱": 852,
      "儳": 853,
      "儸": 854,
      "儿": 855,
      "兀": 856,
      "允": 857,
      "元": 858,
      "兄": 859,
      "充": 860,
      "兆": 861,
      "先": 862,
      "光": 863,
      "克": 864,
      "免": 865,
      "兑": 866,
      "兔": 867,
      "兕": 868,
      "兖": 869,
      "党": 870,
      "兜": 871,
      "兟": 872,
      "兢": 873,
      "入": 874,
      "全": 875,
      "八": 876,
      "公": 877,
      "六": 878,
      "兮": 879,
      "兰": 880,
      "共": 881,
      "关": 882,
      "兴": 883,
      "兵": 884,
      "其": 885,
      "具": 886,
      "典": 887,
      "兹": 888,
      "养": 889,
      "兼": 890,
      "兽": 891,
      "冀": 892,
      "冁": 893,
      "冂": 894,
      "内": 895,
      "冇": 896,
      "冈": 897,
      "冉": 898,
      "册": 899,
      "再": 900,
      "冑": 901,
      "冒": 902,
      "冓": 903,
      "冔": 904,
      "冕": 905,
      "冗": 906,
      "冘": 907,
      "写": 908,
      "军": 909,
      "农": 910,
      "冠": 911,
      "冢": 912,
      "冤": 913,
      "冥": 914,
      "冫": 915,
      "冬": 916,
      "冯": 917,
      "冰": 918,
      "冱": 919,
      "冲": 920,
      "决": 921,
      "况": 922,
      "冶": 923,
      "冷": 924,
      "冻": 925,
      "冼": 926,
      "冽": 927,
      "冿": 928,
      "净": 929,
      "凄": 930,
      "凅": 931,
      "准": 932,
      "凇": 933,
      "凉": 934,
      "凊": 935,
      "凋": 936,
      "凌": 937,
      "减": 938,
      "凑": 939,
      "凘": 940,
      "凛": 941,
      "凝": 942,
      "几": 943,
      "凡": 944,
      "凤": 945,
      "凫": 946,
      "凭": 947,
      "凯": 948,
      "凰": 949,
      "凳": 950,
      "凶": 951,
      "凸": 952,
      "凹": 953,
      "出": 954,
      "击": 955,
      "凼": 956,
      "函": 957,
      "凿": 958,
      "刀": 959,
      "刁": 960,
      "刂": 961,
      "刃": 962,
      "刅": 963,
      "分": 964,
      "切": 965,
      "刈": 966,
      "刊": 967,
      "刌": 968,
      "刍": 969,
      "刎": 970,
      "刑": 971,
      "划": 972,
      "刓": 973,
      "刖": 974,
      "列": 975,
      "刘": 976,
      "则": 977,
      "刚": 978,
      "创": 979,
      "刜": 980,
      "初": 981,
      "删": 982,
      "判": 983,
      "刨": 984,
      "利": 985,
      "别": 986,
      "刬": 987,
      "刭": 988,
      "刮": 989,
      "到": 990,
      "刱": 991,
      "刲": 992,
      "刳": 993,
      "制": 994,
      "刷": 995,
      "券": 996,
      "刹": 997,
      "刺": 998,
      "刻": 999,
      "刽": 1000,
      "刿": 1001,
      "剀": 1002,
      "剁": 1003,
      "剂": 1004,
      "剃": 1005,
      "剉": 1006,
      "削": 1007,
      "剋": 1008,
      "剌": 1009,
      "前": 1010,
      "剐": 1011,
      "剑": 1012,
      "剔": 1013,
      "剖": 1014,
      "剚": 1015,
      "剜": 1016,
      "剞": 1017,
      "剟": 1018,
      "剡": 1019,
      "剥": 1020,
      "剧": 1021,
      "剨": 1022,
      "剩": 1023,
      "剪": 1024,
      "副": 1025,
      "割": 1026,
      "剳": 1027,
      "剶": 1028,
      "剸": 1029,
      "剺": 1030,
      "剽": 1031,
      "剿": 1032,
      "劂": 1033,
      "劄": 1034,
      "劈": 1035,
      "劓": 1036,
      "劖": 1037,
      "劘": 1038,
      "劙": 1039,
      "力": 1040,
      "劝": 1041,
      "办": 1042,
      "功": 1043,
      "加": 1044,
      "务": 1045,
      "劣": 1046,
      "动": 1047,
      "助": 1048,
      "努": 1049,
      "劫": 1050,
      "劬": 1051,
      "劭": 1052,
      "励": 1053,
      "劲": 1054,
      "劳": 1055,
      "劵": 1056,
      "劻": 1057,
      "劼": 1058,
      "劾": 1059,
      "势": 1060,
      "勃": 1061,
      "勇": 1062,
      "勉": 1063,
      "勋": 1064,
      "勌": 1065,
      "勍": 1066,
      "勒": 1067,
      "勔": 1068,
      "勖": 1069,
      "勘": 1070,
      "勚": 1071,
      "募": 1072,
      "勠": 1073,
      "勤": 1074,
      "勷": 1075,
      "勺": 1076,
      "勾": 1077,
      "勿": 1078,
      "匀": 1079,
      "包": 1080,
      "匆": 1081,
      "匈": 1082,
      "匉": 1083,
      "匊": 1084,
      "匋": 1085,
      "匌": 1086,
      "匍": 1087,
      "匏": 1088,
      "匐": 1089,
      "匕": 1090,
      "化": 1091,
      "北": 1092,
      "匙": 1093,
      "匜": 1094,
      "匝": 1095,
      "匠": 1096,
      "匡": 1097,
      "匣": 1098,
      "匦": 1099,
      "匪": 1100,
      "匮": 1101,
      "匰": 1102,
      "匹": 1103,
      "区": 1104,
      "医": 1105,
      "匼": 1106,
      "匽": 1107,
      "匾": 1108,
      "匿": 1109,
      "十": 1110,
      "千": 1111,
      "卅": 1112,
      "升": 1113,
      "午": 1114,
      "卉": 1115,
      "半": 1116,
      "卌": 1117,
      "华": 1118,
      "协": 1119,
      "卐": 1120,
      "卑": 1121,
      "卒": 1122,
      "卓": 1123,
      "单": 1124,
      "卖": 1125,
      "南": 1126,
      "博": 1127,
      "卜": 1128,
      "卝": 1129,
      "卞": 1130,
      "占": 1131,
      "卡": 1132,
      "卢": 1133,
      "卣": 1134,
      "卤": 1135,
      "卦": 1136,
      "卧": 1137,
      "卨": 1138,
      "卫": 1139,
      "卬": 1140,
      "卮": 1141,
      "卯": 1142,
      "印": 1143,
      "危": 1144,
      "卲": 1145,
      "即": 1146,
      "却": 1147,
      "卵": 1148,
      "卷": 1149,
      "卸": 1150,
      "卺": 1151,
      "卼": 1152,
      "卿": 1153,
      "厂": 1154,
      "厄": 1155,
      "厅": 1156,
      "历": 1157,
      "厉": 1158,
      "压": 1159,
      "厌": 1160,
      "厎": 1161,
      "厏": 1162,
      "厓": 1163,
      "厔": 1164,
      "厕": 1165,
      "厖": 1166,
      "厘": 1167,
      "厚": 1168,
      "厜": 1169,
      "厝": 1170,
      "原": 1171,
      "厢": 1172,
      "厣": 1173,
      "厥": 1174,
      "厦": 1175,
      "厨": 1176,
      "厩": 1177,
      "厮": 1178,
      "厸": 1179,
      "去": 1180,
      "厽": 1181,
      "厾": 1182,
      "县": 1183,
      "叁": 1184,
      "参": 1185,
      "叆": 1186,
      "叇": 1187,
      "又": 1188,
      "叉": 1189,
      "及": 1190,
      "友": 1191,
      "双": 1192,
      "反": 1193,
      "发": 1194,
      "叔": 1195,
      "取": 1196,
      "受": 1197,
      "变": 1198,
      "叙": 1199,
      "叚": 1200,
      "叛": 1201,
      "叟": 1202,
      "叠": 1203,
      "口": 1204,
      "古": 1205,
      "句": 1206,
      "另": 1207,
      "叨": 1208,
      "叩": 1209,
      "只": 1210,
      "叫": 1211,
      "召": 1212,
      "叭": 1213,
      "叮": 1214,
      "可": 1215,
      "台": 1216,
      "叱": 1217,
      "史": 1218,
      "右": 1219,
      "叵": 1220,
      "叶": 1221,
      "号": 1222,
      "司": 1223,
      "叹": 1224,
      "叻": 1225,
      "叼": 1226,
      "叽": 1227,
      "吁": 1228,
      "吃": 1229,
      "各": 1230,
      "吅": 1231,
      "吆": 1232,
      "合": 1233,
      "吉": 1234,
      "吊": 1235,
      "同": 1236,
      "名": 1237,
      "后": 1238,
      "吏": 1239,
      "吐": 1240,
      "向": 1241,
      "吒": 1242,
      "吓": 1243,
      "吕": 1244,
      "吗": 1245,
      "君": 1246,
      "吝": 1247,
      "吞": 1248,
      "吟": 1249,
      "吠": 1250,
      "否": 1251,
      "吧": 1252,
      "吨": 1253,
      "吩": 1254,
      "吪": 1255,
      "含": 1256,
      "听": 1257,
      "吭": 1258,
      "吮": 1259,
      "启": 1260,
      "吰": 1261,
      "吱": 1262,
      "吴": 1263,
      "吵": 1264,
      "吷": 1265,
      "吸": 1266,
      "吹": 1267,
      "吻": 1268,
      "吼": 1269,
      "吽": 1270,
      "吾": 1271,
      "呀": 1272,
      "呃": 1273,
      "呆": 1274,
      "呇": 1275,
      "呈": 1276,
      "告": 1277,
      "呋": 1278,
      "呎": 1279,
      "呐": 1280,
      "呓": 1281,
      "呕": 1282,
      "呖": 1283,
      "呗": 1284,
      "员": 1285,
      "呛": 1286,
      "呜": 1287,
      "呞": 1288,
      "呢": 1289,
      "呤": 1290,
      "呥": 1291,
      "呦": 1292,
      "周": 1293,
      "呫": 1294,
      "呬": 1295,
      "呯": 1296,
      "呱": 1297,
      "呲": 1298,
      "味": 1299,
      "呴": 1300,
      "呵": 1301,
      "呶": 1302,
      "呷": 1303,
      "呺": 1304,
      "呻": 1305,
      "呼": 1306,
      "命": 1307,
      "呾": 1308,
      "呿": 1309,
      "咀": 1310,
      "咁": 1311,
      "咂": 1312,
      "咄": 1313,
      "咆": 1314,
      "咈": 1315,
      "咋": 1316,
      "和": 1317,
      "咍": 1318,
      "咎": 1319,
      "咏": 1320,
      "咐": 1321,
      "咒": 1322,
      "咕": 1323,
      "咖": 1324,
      "咙": 1325,
      "咚": 1326,
      "咛": 1327,
      "咜": 1328,
      "咡": 1329,
      "咤": 1330,
      "咥": 1331,
      "咦": 1332,
      "咧": 1333,
      "咨": 1334,
      "咪": 1335,
      "咫": 1336,
      "咬": 1337,
      "咮": 1338,
      "咯": 1339,
      "咱": 1340,
      "咳": 1341,
      "咶": 1342,
      "咷": 1343,
      "咸": 1344,
      "咻": 1345,
      "咽": 1346,
      "咿": 1347,
      "哀": 1348,
      "品": 1349,
      "哂": 1350,
      "哄": 1351,
      "哅": 1352,
      "哆": 1353,
      "哇": 1354,
      "哈": 1355,
      "哉": 1356,
      "响": 1357,
      "哎": 1358,
      "哑": 1359,
      "哒": 1360,
      "哓": 1361,
      "哔": 1362,
      "哕": 1363,
      "哗": 1364,
      "哙": 1365,
      "哜": 1366,
      "哝": 1367,
      "哢": 1368,
      "哤": 1369,
      "哥": 1370,
      "哦": 1371,
      "哧": 1372,
      "哨": 1373,
      "哩": 1374,
      "哪": 1375,
      "哭": 1376,
      "哮": 1377,
      "哱": 1378,
      "哲": 1379,
      "哳": 1380,
      "哶": 1381,
      "哺": 1382,
      "哻": 1383,
      "哼": 1384,
      "哽": 1385,
      "哿": 1386,
      "唁": 1387,
      "唅": 1388,
      "唆": 1389,
      "唇": 1390,
      "唉": 1391,
      "唏": 1392,
      "唐": 1393,
      "唔": 1394,
      "唝": 1395,
      "唠": 1396,
      "唢": 1397,
      "唣": 1398,
      "唤": 1399,
      "唧": 1400,
      "唪": 1401,
      "唫": 1402,
      "售": 1403,
      "唯": 1404,
      "唱": 1405,
      "唳": 1406,
      "唵": 1407,
      "唶": 1408,
      "唼": 1409,
      "唽": 1410,
      "唾": 1411,
      "啀": 1412,
      "啁": 1413,
      "啂": 1414,
      "啃": 1415,
      "啄": 1416,
      "啅": 1417,
      "商": 1418,
      "啊": 1419,
      "啍": 1420,
      "啐": 1421,
      "啑": 1422,
      "啒": 1423,
      "啕": 1424,
      "啖": 1425,
      "啙": 1426,
      "啚": 1427,
      "啛": 1428,
      "啜": 1429,
      "啝": 1430,
      "啡": 1431,
      "啤": 1432,
      "啦": 1433,
      "啧": 1434,
      "啬": 1435,
      "啭": 1436,
      "啮": 1437,
      "啯": 1438,
      "啰": 1439,
      "啴": 1440,
      "啵": 1441,
      "啸": 1442,
      "啻": 1443,
      "啼": 1444,
      "啾": 1445,
      "喀": 1446,
      "喁": 1447,
      "喂": 1448,
      "喃": 1449,
      "善": 1450,
      "喇": 1451,
      "喈": 1452,
      "喉": 1453,
      "喊": 1454,
      "喋": 1455,
      "喌": 1456,
      "喍": 1457,
      "喎": 1458,
      "喏": 1459,
      "喑": 1460,
      "喓": 1461,
      "喔": 1462,
      "喘": 1463,
      "喙": 1464,
      "喛": 1465,
      "喜": 1466,
      "喝": 1467,
      "喟": 1468,
      "喣": 1469,
      "喤": 1470,
      "喧": 1471,
      "喨": 1472,
      "喰": 1473,
      "喳": 1474,
      "喷": 1475,
      "喻": 1476,
      "喽": 1477,
      "喾": 1478,
      "嗂": 1479,
      "嗄": 1480,
      "嗅": 1481,
      "嗈": 1482,
      "嗉": 1483,
      "嗏": 1484,
      "嗑": 1485,
      "嗒": 1486,
      "嗓": 1487,
      "嗔": 1488,
      "嗛": 1489,
      "嗜": 1490,
      "嗝": 1491,
      "嗟": 1492,
      "嗢": 1493,
      "嗣": 1494,
      "嗤": 1495,
      "嗥": 1496,
      "嗦": 1497,
      "嗨": 1498,
      "嗫": 1499,
      "嗲": 1500,
      "嗷": 1501,
      "嗺": 1502,
      "嗼": 1503,
      "嗽": 1504,
      "嗾": 1505,
      "嘀": 1506,
      "嘂": 1507,
      "嘅": 1508,
      "嘈": 1509,
      "嘉": 1510,
      "嘌": 1511,
      "嘎": 1512,
      "嘏": 1513,
      "嘐": 1514,
      "嘑": 1515,
      "嘒": 1516,
      "嘘": 1517,
      "嘛": 1518,
      "嘣": 1519,
      "嘤": 1520,
      "嘬": 1521,
      "嘱": 1522,
      "嘲": 1523,
      "嘴": 1524,
      "嘶": 1525,
      "嘷": 1526,
      "嘹": 1527,
      "嘻": 1528,
      "嘿": 1529,
      "噀": 1530,
      "噂": 1531,
      "噆": 1532,
      "噇": 1533,
      "噈": 1534,
      "噌": 1535,
      "噍": 1536,
      "噎": 1537,
      "噏": 1538,
      "噙": 1539,
      "噜": 1540,
      "噞": 1541,
      "噡": 1542,
      "噣": 1543,
      "噤": 1544,
      "器": 1545,
      "噩": 1546,
      "噪": 1547,
      "噫": 1548,
      "噬": 1549,
      "噭": 1550,
      "噰": 1551,
      "噱": 1552,
      "噶": 1553,
      "噽": 1554,
      "嚄": 1555,
      "嚅": 1556,
      "嚆": 1557,
      "嚇": 1558,
      "嚍": 1559,
      "嚎": 1560,
      "嚏": 1561,
      "嚗": 1562,
      "嚘": 1563,
      "嚚": 1564,
      "嚣": 1565,
      "嚤": 1566,
      "嚧": 1567,
      "嚫": 1568,
      "嚬": 1569,
      "嚭": 1570,
      "嚱": 1571,
      "嚵": 1572,
      "嚷": 1573,
      "嚼": 1574,
      "嚾": 1575,
      "囊": 1576,
      "囋": 1577,
      "囐": 1578,
      "囗": 1579,
      "囚": 1580,
      "四": 1581,
      "囝": 1582,
      "回": 1583,
      "囟": 1584,
      "因": 1585,
      "囡": 1586,
      "团": 1587,
      "囤": 1588,
      "囧": 1589,
      "囫": 1590,
      "园": 1591,
      "困": 1592,
      "囱": 1593,
      "囲": 1594,
      "围": 1595,
      "囵": 1596,
      "囷": 1597,
      "囹": 1598,
      "固": 1599,
      "国": 1600,
      "图": 1601,
      "囿": 1602,
      "圁": 1603,
      "圃": 1604,
      "圄": 1605,
      "圆": 1606,
      "圈": 1607,
      "圉": 1608,
      "圊": 1609,
      "圌": 1610,
      "圚": 1611,
      "圛": 1612,
      "圜": 1613,
      "圞": 1614,
      "土": 1615,
      "圠": 1616,
      "圣": 1617,
      "在": 1618,
      "圩": 1619,
      "圪": 1620,
      "圬": 1621,
      "圭": 1622,
      "圮": 1623,
      "圯": 1624,
      "地": 1625,
      "圱": 1626,
      "圳": 1627,
      "圹": 1628,
      "场": 1629,
      "圻": 1630,
      "圾": 1631,
      "址": 1632,
      "坁": 1633,
      "坂": 1634,
      "均": 1635,
      "坊": 1636,
      "坌": 1637,
      "坍": 1638,
      "坎": 1639,
      "坏": 1640,
      "坐": 1641,
      "坑": 1642,
      "块": 1643,
      "坚": 1644,
      "坛": 1645,
      "坜": 1646,
      "坝": 1647,
      "坞": 1648,
      "坟": 1649,
      "坠": 1650,
      "坡": 1651,
      "坤": 1652,
      "坦": 1653,
      "坨": 1654,
      "坩": 1655,
      "坪": 1656,
      "坫": 1657,
      "坭": 1658,
      "坯": 1659,
      "坰": 1660,
      "坱": 1661,
      "坲": 1662,
      "坳": 1663,
      "坷": 1664,
      "坻": 1665,
      "坼": 1666,
      "坽": 1667,
      "垂": 1668,
      "垃": 1669,
      "垄": 1670,
      "垆": 1671,
      "型": 1672,
      "垌": 1673,
      "垍": 1674,
      "垐": 1675,
      "垒": 1676,
      "垓": 1677,
      "垕": 1678,
      "垛": 1679,
      "垝": 1680,
      "垞": 1681,
      "垠": 1682,
      "垡": 1683,
      "垢": 1684,
      "垣": 1685,
      "垤": 1686,
      "垥": 1687,
      "垦": 1688,
      "垩": 1689,
      "垫": 1690,
      "垭": 1691,
      "垮": 1692,
      "垲": 1693,
      "垾": 1694,
      "埂": 1695,
      "埃": 1696,
      "埆": 1697,
      "埇": 1698,
      "埋": 1699,
      "埌": 1700,
      "城": 1701,
      "埏": 1702,
      "埒": 1703,
      "埔": 1704,
      "埕": 1705,
      "埘": 1706,
      "埙": 1707,
      "埚": 1708,
      "埝": 1709,
      "域": 1710,
      "埠": 1711,
      "埤": 1712,
      "埦": 1713,
      "埧": 1714,
      "埪": 1715,
      "埭": 1716,
      "埳": 1717,
      "埴": 1718,
      "埵": 1719,
      "埶": 1720,
      "埸": 1721,
      "培": 1722,
      "基": 1723,
      "埼": 1724,
      "埽": 1725,
      "堀": 1726,
      "堁": 1727,
      "堂": 1728,
      "堄": 1729,
      "堆": 1730,
      "堇": 1731,
      "堈": 1732,
      "堋": 1733,
      "堍": 1734,
      "堑": 1735,
      "堕": 1736,
      "堙": 1737,
      "堞": 1738,
      "堠": 1739,
      "堡": 1740,
      "堤": 1741,
      "堧": 1742,
      "堨": 1743,
      "堪": 1744,
      "堫": 1745,
      "堮": 1746,
      "堰": 1747,
      "堲": 1748,
      "堵": 1749,
      "堶": 1750,
      "塈": 1751,
      "塌": 1752,
      "塍": 1753,
      "塑": 1754,
      "塓": 1755,
      "塔": 1756,
      "塘": 1757,
      "塞": 1758,
      "塪": 1759,
      "填": 1760,
      "塭": 1761,
      "塯": 1762,
      "塳": 1763,
      "塸": 1764,
      "塼": 1765,
      "塾": 1766,
      "塿": 1767,
      "墀": 1768,
      "墁": 1769,
      "境": 1770,
      "墄": 1771,
      "墅": 1772,
      "墈": 1773,
      "墉": 1774,
      "墌": 1775,
      "墐": 1776,
      "墓": 1777,
      "墘": 1778,
      "墙": 1779,
      "增": 1780,
      "墟": 1781,
      "墠": 1782,
      "墣": 1783,
      "墦": 1784,
      "墨": 1785,
      "墩": 1786,
      "墯": 1787,
      "墰": 1788,
      "墺": 1789,
      "墼": 1790,
      "壁": 1791,
      "壅": 1792,
      "壈": 1793,
      "壑": 1794,
      "壒": 1795,
      "壕": 1796,
      "壖": 1797,
      "壝": 1798,
      "壤": 1799,
      "士": 1800,
      "壬": 1801,
      "壮": 1802,
      "声": 1803,
      "壳": 1804,
      "壶": 1805,
      "壸": 1806,
      "壹": 1807,
      "处": 1808,
      "备": 1809,
      "夌": 1810,
      "复": 1811,
      "夏": 1812,
      "夐": 1813,
      "夑": 1814,
      "夔": 1815,
      "夕": 1816,
      "外": 1817,
      "夗": 1818,
      "夘": 1819,
      "夙": 1820,
      "多": 1821,
      "夜": 1822,
      "够": 1823,
      "夤": 1824,
      "夥": 1825,
      "大": 1826,
      "天": 1827,
      "太": 1828,
      "夫": 1829,
      "夬": 1830,
      "夭": 1831,
      "央": 1832,
      "夯": 1833,
      "失": 1834,
      "头": 1835,
      "夷": 1836,
      "夸": 1837,
      "夹": 1838,
      "夺": 1839,
      "奁": 1840,
      "奂": 1841,
      "奄": 1842,
      "奇": 1843,
      "奈": 1844,
      "奉": 1845,
      "奋": 1846,
      "奎": 1847,
      "奏": 1848,
      "契": 1849,
      "奔": 1850,
      "奕": 1851,
      "奖": 1852,
      "套": 1853,
      "奘": 1854,
      "奚": 1855,
      "奠": 1856,
      "奡": 1857,
      "奢": 1858,
      "奥": 1859,
      "奫": 1860,
      "奭": 1861,
      "奯": 1862,
      "女": 1863,
      "奴": 1864,
      "奶": 1865,
      "奸": 1866,
      "她": 1867,
      "奼": 1868,
      "好": 1869,
      "妁": 1870,
      "如": 1871,
      "妃": 1872,
      "妄": 1873,
      "妆": 1874,
      "妇": 1875,
      "妈": 1876,
      "妊": 1877,
      "妍": 1878,
      "妑": 1879,
      "妒": 1880,
      "妓": 1881,
      "妖": 1882,
      "妙": 1883,
      "妚": 1884,
      "妞": 1885,
      "妠": 1886,
      "妣": 1887,
      "妤": 1888,
      "妥": 1889,
      "妦": 1890,
      "妨": 1891,
      "妩": 1892,
      "妪": 1893,
      "妫": 1894,
      "妮": 1895,
      "妯": 1896,
      "妲": 1897,
      "妳": 1898,
      "妷": 1899,
      "妹": 1900,
      "妺": 1901,
      "妻": 1902,
      "妾": 1903,
      "姁": 1904,
      "姆": 1905,
      "姇": 1906,
      "姊": 1907,
      "始": 1908,
      "姎": 1909,
      "姐": 1910,
      "姑": 1911,
      "姒": 1912,
      "姓": 1913,
      "委": 1914,
      "姗": 1915,
      "姚": 1916,
      "姜": 1917,
      "姝": 1918,
      "姞": 1919,
      "姣": 1920,
      "姤": 1921,
      "姥": 1922,
      "姨": 1923,
      "姩": 1924,
      "姬": 1925,
      "姮": 1926,
      "姱": 1927,
      "姹": 1928,
      "姻": 1929,
      "姽": 1930,
      "姿": 1931,
      "娀": 1932,
      "威": 1933,
      "娂": 1934,
      "娃": 1935,
      "娄": 1936,
      "娅": 1937,
      "娆": 1938,
      "娇": 1939,
      "娈": 1940,
      "娉": 1941,
      "娋": 1942,
      "娌": 1943,
      "娑": 1944,
      "娓": 1945,
      "娖": 1946,
      "娘": 1947,
      "娙": 1948,
      "娜": 1949,
      "娞": 1950,
      "娟": 1951,
      "娠": 1952,
      "娣": 1953,
      "娥": 1954,
      "娩": 1955,
      "娭": 1956,
      "娱": 1957,
      "娲": 1958,
      "娴": 1959,
      "娵": 1960,
      "娶": 1961,
      "娸": 1962,
      "娼": 1963,
      "娿": 1964,
      "婀": 1965,
      "婆": 1966,
      "婉": 1967,
      "婍": 1968,
      "婐": 1969,
      "婑": 1970,
      "婕": 1971,
      "婗": 1972,
      "婘": 1973,
      "婚": 1974,
      "婞": 1975,
      "婠": 1976,
      "婢": 1977,
      "婥": 1978,
      "婧": 1979,
      "婪": 1980,
      "婳": 1981,
      "婴": 1982,
      "婵": 1983,
      "婶": 1984,
      "婷": 1985,
      "婹": 1986,
      "婺": 1987,
      "婿": 1988,
      "媀": 1989,
      "媆": 1990,
      "媊": 1991,
      "媌": 1992,
      "媐": 1993,
      "媒": 1994,
      "媕": 1995,
      "媖": 1996,
      "媗": 1997,
      "媙": 1998,
      "媚": 1999,
      "媛": 2000,
      "媞": 2001,
      "媟": 2002,
      "媠": 2003,
      "媢": 2004,
      "媪": 2005,
      "媭": 2006,
      "媮": 2007,
      "媱": 2008,
      "媲": 2009,
      "媳": 2010,
      "媵": 2011,
      "媶": 2012,
      "媷": 2013,
      "媸": 2014,
      "媻": 2015,
      "媾": 2016,
      "嫁": 2017,
      "嫂": 2018,
      "嫄": 2019,
      "嫉": 2020,
      "嫌": 2021,
      "嫏": 2022,
      "嫐": 2023,
      "嫒": 2024,
      "嫔": 2025,
      "嫕": 2026,
      "嫖": 2027,
      "嫚": 2028,
      "嫛": 2029,
      "嫜": 2030,
      "嫞": 2031,
      "嫠": 2032,
      "嫡": 2033,
      "嫣": 2034,
      "嫦": 2035,
      "嫩": 2036,
      "嫪": 2037,
      "嫫": 2038,
      "嫭": 2039,
      "嫱": 2040,
      "嫲": 2041,
      "嫽": 2042,
      "嬉": 2043,
      "嬖": 2044,
      "嬗": 2045,
      "嬛": 2046,
      "嬠": 2047,
      "嬲": 2048,
      "嬴": 2049,
      "嬽": 2050,
      "嬿": 2051,
      "孀": 2052,
      "孅": 2053,
      "孊": 2054,
      "孋": 2055,
      "子": 2056,
      "孑": 2057,
      "孔": 2058,
      "孕": 2059,
      "孖": 2060,
      "字": 2061,
      "存": 2062,
      "孙": 2063,
      "孚": 2064,
      "孛": 2065,
      "孜": 2066,
      "孝": 2067,
      "孟": 2068,
      "季": 2069,
      "孤": 2070,
      "孥": 2071,
      "学": 2072,
      "孩": 2073,
      "孪": 2074,
      "孰": 2075,
      "孱": 2076,
      "孲": 2077,
      "孳": 2078,
      "孵": 2079,
      "孺": 2080,
      "孽": 2081,
      "宁": 2082,
      "它": 2083,
      "宄": 2084,
      "宅": 2085,
      "宇": 2086,
      "守": 2087,
      "安": 2088,
      "宋": 2089,
      "完": 2090,
      "宎": 2091,
      "宏": 2092,
      "宓": 2093,
      "宕": 2094,
      "宗": 2095,
      "官": 2096,
      "宙": 2097,
      "定": 2098,
      "宛": 2099,
      "宜": 2100,
      "宝": 2101,
      "实": 2102,
      "宠": 2103,
      "审": 2104,
      "客": 2105,
      "宣": 2106,
      "室": 2107,
      "宥": 2108,
      "宦": 2109,
      "宧": 2110,
      "宪": 2111,
      "宫": 2112,
      "宬": 2113,
      "宰": 2114,
      "害": 2115,
      "宴": 2116,
      "宵": 2117,
      "家": 2118,
      "宸": 2119,
      "容": 2120,
      "宽": 2121,
      "宾": 2122,
      "宿": 2123,
      "寀": 2124,
      "寁": 2125,
      "寂": 2126,
      "寄": 2127,
      "寅": 2128,
      "密": 2129,
      "寇": 2130,
      "富": 2131,
      "寐": 2132,
      "寒": 2133,
      "寓": 2134,
      "寔": 2135,
      "寖": 2136,
      "寘": 2137,
      "寝": 2138,
      "寞": 2139,
      "察": 2140,
      "寠": 2141,
      "寡": 2142,
      "寤": 2143,
      "寥": 2144,
      "寨": 2145,
      "寮": 2146,
      "寰": 2147,
      "寱": 2148,
      "寸": 2149,
      "对": 2150,
      "寺": 2151,
      "寻": 2152,
      "导": 2153,
      "寿": 2154,
      "封": 2155,
      "射": 2156,
      "尅": 2157,
      "将": 2158,
      "尉": 2159,
      "尊": 2160,
      "尌": 2161,
      "小": 2162,
      "少": 2163,
      "尔": 2164,
      "尖": 2165,
      "尘": 2166,
      "尚": 2167,
      "尝": 2168,
      "尤": 2169,
      "尧": 2170,
      "尨": 2171,
      "尪": 2172,
      "尰": 2173,
      "就": 2174,
      "尵": 2175,
      "尸": 2176,
      "尹": 2177,
      "尺": 2178,
      "尻": 2179,
      "尼": 2180,
      "尽": 2181,
      "尾": 2182,
      "尿": 2183,
      "局": 2184,
      "屁": 2185,
      "层": 2186,
      "屃": 2187,
      "居": 2188,
      "屈": 2189,
      "屉": 2190,
      "届": 2191,
      "屋": 2192,
      "屎": 2193,
      "屏": 2194,
      "屐": 2195,
      "屑": 2196,
      "展": 2197,
      "屙": 2198,
      "屝": 2199,
      "属": 2200,
      "屟": 2201,
      "屠": 2202,
      "屡": 2203,
      "屣": 2204,
      "履": 2205,
      "屦": 2206,
      "屧": 2207,
      "屩": 2208,
      "屮": 2209,
      "屯": 2210,
      "山": 2211,
      "屴": 2212,
      "屶": 2213,
      "屹": 2214,
      "屺": 2215,
      "屻": 2216,
      "屼": 2217,
      "屾": 2218,
      "屿": 2219,
      "岁": 2220,
      "岂": 2221,
      "岇": 2222,
      "岈": 2223,
      "岉": 2224,
      "岊": 2225,
      "岋": 2226,
      "岌": 2227,
      "岍": 2228,
      "岏": 2229,
      "岐": 2230,
      "岑": 2231,
      "岔": 2232,
      "岕": 2233,
      "岖": 2234,
      "岗": 2235,
      "岘": 2236,
      "岙": 2237,
      "岚": 2238,
      "岛": 2239,
      "岝": 2240,
      "岞": 2241,
      "岢": 2242,
      "岣": 2243,
      "岦": 2244,
      "岧": 2245,
      "岨": 2246,
      "岩": 2247,
      "岪": 2248,
      "岫": 2249,
      "岬": 2250,
      "岭": 2251,
      "岮": 2252,
      "岯": 2253,
      "岰": 2254,
      "岱": 2255,
      "岳": 2256,
      "岵": 2257,
      "岷": 2258,
      "岸": 2259,
      "岿": 2260,
      "峁": 2261,
      "峃": 2262,
      "峄": 2263,
      "峋": 2264,
      "峍": 2265,
      "峐": 2266,
      "峒": 2267,
      "峓": 2268,
      "峕": 2269,
      "峗": 2270,
      "峘": 2271,
      "峙": 2272,
      "峚": 2273,
      "峞": 2274,
      "峡": 2275,
      "峣": 2276,
      "峤": 2277,
      "峥": 2278,
      "峦": 2279,
      "峨": 2280,
      "峪": 2281,
      "峬": 2282,
      "峭": 2283,
      "峰": 2284,
      "峳": 2285,
      "島": 2286,
      "峹": 2287,
      "峺": 2288,
      "峻": 2289,
      "峿": 2290,
      "崁": 2291,
      "崂": 2292,
      "崃": 2293,
      "崄": 2294,
      "崅": 2295,
      "崆": 2296,
      "崇": 2297,
      "崎": 2298,
      "崒": 2299,
      "崔": 2300,
      "崖": 2301,
      "崙": 2302,
      "崚": 2303,
      "崛": 2304,
      "崟": 2305,
      "崠": 2306,
      "崡": 2307,
      "崤": 2308,
      "崦": 2309,
      "崧": 2310,
      "崨": 2311,
      "崩": 2312,
      "崭": 2313,
      "崮": 2314,
      "崱": 2315,
      "崲": 2316,
      "崷": 2317,
      "崽": 2318,
      "崿": 2319,
      "嵁": 2320,
      "嵂": 2321,
      "嵃": 2322,
      "嵇": 2323,
      "嵉": 2324,
      "嵊": 2325,
      "嵋": 2326,
      "嵌": 2327,
      "嵍": 2328,
      "嵎": 2329,
      "嵏": 2330,
      "嵓": 2331,
      "嵖": 2332,
      "嵘": 2333,
      "嵚": 2334,
      "嵜": 2335,
      "嵝": 2336,
      "嵦": 2337,
      "嵨": 2338,
      "嵩": 2339,
      "嵫": 2340,
      "嵬": 2341,
      "嵯": 2342,
      "嵰": 2343,
      "嵲": 2344,
      "嵷": 2345,
      "嵹": 2346,
      "嵺": 2347,
      "嵼": 2348,
      "嵽": 2349,
      "嵾": 2350,
      "嵿": 2351,
      "嶀": 2352,
      "嶂": 2353,
      "嶅": 2354,
      "嶆": 2355,
      "嶊": 2356,
      "嶍": 2357,
      "嶒": 2358,
      "嶓": 2359,
      "嶕": 2360,
      "嶙": 2361,
      "嶛": 2362,
      "嶜": 2363,
      "嶝": 2364,
      "嶞": 2365,
      "嶟": 2366,
      "嶪": 2367,
      "嶭": 2368,
      "嶰": 2369,
      "嶵": 2370,
      "嶶": 2371,
      "嶷": 2372,
      "嶾": 2373,
      "巀": 2374,
      "巂": 2375,
      "巃": 2376,
      "巅": 2377,
      "巇": 2378,
      "巉": 2379,
      "巍": 2380,
      "巏": 2381,
      "巑": 2382,
      "巘": 2383,
      "川": 2384,
      "州": 2385,
      "巡": 2386,
      "巢": 2387,
      "工": 2388,
      "左": 2389,
      "巧": 2390,
      "巨": 2391,
      "巩": 2392,
      "巫": 2393,
      "差": 2394,
      "己": 2395,
      "已": 2396,
      "巳": 2397,
      "巴": 2398,
      "巷": 2399,
      "巽": 2400,
      "巾": 2401,
      "币": 2402,
      "市": 2403,
      "布": 2404,
      "帅": 2405,
      "帆": 2406,
      "师": 2407,
      "帉": 2408,
      "希": 2409,
      "帏": 2410,
      "帐": 2411,
      "帑": 2412,
      "帓": 2413,
      "帔": 2414,
      "帕": 2415,
      "帖": 2416,
      "帗": 2417,
      "帘": 2418,
      "帙": 2419,
      "帚": 2420,
      "帛": 2421,
      "帜": 2422,
      "帝": 2423,
      "帟": 2424,
      "帡": 2425,
      "帢": 2426,
      "帤": 2427,
      "带": 2428,
      "帧": 2429,
      "帨": 2430,
      "帩": 2431,
      "席": 2432,
      "帮": 2433,
      "帱": 2434,
      "帴": 2435,
      "帷": 2436,
      "常": 2437,
      "帻": 2438,
      "帼": 2439,
      "帽": 2440,
      "幂": 2441,
      "幄": 2442,
      "幅": 2443,
      "幆": 2444,
      "幌": 2445,
      "幍": 2446,
      "幐": 2447,
      "幔": 2448,
      "幕": 2449,
      "幖": 2450,
      "幛": 2451,
      "幞": 2452,
      "幡": 2453,
      "幢": 2454,
      "幧": 2455,
      "幨": 2456,
      "幩": 2457,
      "幪": 2458,
      "幮": 2459,
      "幰": 2460,
      "干": 2461,
      "平": 2462,
      "年": 2463,
      "并": 2464,
      "幸": 2465,
      "幺": 2466,
      "幻": 2467,
      "幼": 2468,
      "幽": 2469,
      "广": 2470,
      "庀": 2471,
      "庄": 2472,
      "庆": 2473,
      "庇": 2474,
      "庉": 2475,
      "床": 2476,
      "庋": 2477,
      "庌": 2478,
      "序": 2479,
      "庐": 2480,
      "庑": 2481,
      "库": 2482,
      "应": 2483,
      "底": 2484,
      "庖": 2485,
      "店": 2486,
      "庙": 2487,
      "庚": 2488,
      "府": 2489,
      "庞": 2490,
      "废": 2491,
      "庠": 2492,
      "庤": 2493,
      "庥": 2494,
      "度": 2495,
      "座": 2496,
      "庪": 2497,
      "庬": 2498,
      "庭": 2499,
      "庮": 2500,
      "庱": 2501,
      "庲": 2502,
      "庳": 2503,
      "庵": 2504,
      "庶": 2505,
      "康": 2506,
      "庸": 2507,
      "庾": 2508,
      "廇": 2509,
      "廉": 2510,
      "廊": 2511,
      "廋": 2512,
      "廌": 2513,
      "廍": 2514,
      "廑": 2515,
      "廒": 2516,
      "廓": 2517,
      "廔": 2518,
      "廖": 2519,
      "廙": 2520,
      "廚": 2521,
      "廛": 2522,
      "廜": 2523,
      "廞": 2524,
      "廥": 2525,
      "廦": 2526,
      "廧": 2527,
      "廨": 2528,
      "廪": 2529,
      "廫": 2530,
      "廱": 2531,
      "延": 2532,
      "廷": 2533,
      "建": 2534,
      "廿": 2535,
      "开": 2536,
      "弁": 2537,
      "异": 2538,
      "弃": 2539,
      "弄": 2540,
      "弇": 2541,
      "弈": 2542,
      "弊": 2543,
      "弋": 2544,
      "式": 2545,
      "弑": 2546,
      "弓": 2547,
      "引": 2548,
      "弗": 2549,
      "弘": 2550,
      "弛": 2551,
      "弝": 2552,
      "弟": 2553,
      "张": 2554,
      "弥": 2555,
      "弦": 2556,
      "弧": 2557,
      "弨": 2558,
      "弩": 2559,
      "弭": 2560,
      "弮": 2561,
      "弯": 2562,
      "弰": 2563,
      "弱": 2564,
      "弸": 2565,
      "弹": 2566,
      "强": 2567,
      "弼": 2568,
      "彀": 2569,
      "彄": 2570,
      "彊": 2571,
      "彍": 2572,
      "归": 2573,
      "当": 2574,
      "彔": 2575,
      "录": 2576,
      "彖": 2577,
      "彗": 2578,
      "彘": 2579,
      "彝": 2580,
      "彟": 2581,
      "彡": 2582,
      "形": 2583,
      "彣": 2584,
      "彤": 2585,
      "彦": 2586,
      "彧": 2587,
      "彩": 2588,
      "彪": 2589,
      "彫": 2590,
      "彬": 2591,
      "彭": 2592,
      "彯": 2593,
      "彰": 2594,
      "影": 2595,
      "彳": 2596,
      "彴": 2597,
      "彷": 2598,
      "役": 2599,
      "彺": 2600,
      "彻": 2601,
      "彼": 2602,
      "彽": 2603,
      "往": 2604,
      "征": 2605,
      "徂": 2606,
      "径": 2607,
      "待": 2608,
      "徇": 2609,
      "很": 2610,
      "徉": 2611,
      "徊": 2612,
      "律": 2613,
      "徐": 2614,
      "徒": 2615,
      "徔": 2616,
      "徕": 2617,
      "得": 2618,
      "徘": 2619,
      "徙": 2620,
      "徛": 2621,
      "徜": 2622,
      "御": 2623,
      "徥": 2624,
      "徦": 2625,
      "徨": 2626,
      "循": 2627,
      "徬": 2628,
      "徭": 2629,
      "微": 2630,
      "徯": 2631,
      "徵": 2632,
      "德": 2633,
      "徼": 2634,
      "徽": 2635,
      "忀": 2636,
      "心": 2637,
      "必": 2638,
      "忆": 2639,
      "忉": 2640,
      "忌": 2641,
      "忍": 2642,
      "忏": 2643,
      "忐": 2644,
      "忑": 2645,
      "忒": 2646,
      "忓": 2647,
      "忖": 2648,
      "志": 2649,
      "忘": 2650,
      "忙": 2651,
      "忚": 2652,
      "忝": 2653,
      "忠": 2654,
      "忡": 2655,
      "忤": 2656,
      "忧": 2657,
      "忪": 2658,
      "快": 2659,
      "忭": 2660,
      "忮": 2661,
      "忱": 2662,
      "忴": 2663,
      "念": 2664,
      "忸": 2665,
      "忺": 2666,
      "忻": 2667,
      "忼": 2668,
      "忽": 2669,
      "忾": 2670,
      "忿": 2671,
      "怀": 2672,
      "态": 2673,
      "怂": 2674,
      "怃": 2675,
      "怅": 2676,
      "怆": 2677,
      "怊": 2678,
      "怍": 2679,
      "怎": 2680,
      "怏": 2681,
      "怒": 2682,
      "怔": 2683,
      "怕": 2684,
      "怖": 2685,
      "怗": 2686,
      "怙": 2687,
      "怛": 2688,
      "怜": 2689,
      "思": 2690,
      "怠": 2691,
      "怡": 2692,
      "怢": 2693,
      "急": 2694,
      "怦": 2695,
      "性": 2696,
      "怨": 2697,
      "怩": 2698,
      "怪": 2699,
      "怫": 2700,
      "怯": 2701,
      "怲": 2702,
      "怵": 2703,
      "总": 2704,
      "怼": 2705,
      "怽": 2706,
      "怿": 2707,
      "恁": 2708,
      "恂": 2709,
      "恃": 2710,
      "恅": 2711,
      "恇": 2712,
      "恊": 2713,
      "恋": 2714,
      "恌": 2715,
      "恍": 2716,
      "恐": 2717,
      "恒": 2718,
      "恓": 2719,
      "恕": 2720,
      "恖": 2721,
      "恙": 2722,
      "恚": 2723,
      "恝": 2724,
      "恞": 2725,
      "恢": 2726,
      "恣": 2727,
      "恤": 2728,
      "恧": 2729,
      "恨": 2730,
      "恩": 2731,
      "恪": 2732,
      "恫": 2733,
      "恬": 2734,
      "恭": 2735,
      "息": 2736,
      "恰": 2737,
      "恳": 2738,
      "恶": 2739,
      "恸": 2740,
      "恹": 2741,
      "恺": 2742,
      "恻": 2743,
      "恼": 2744,
      "恽": 2745,
      "恿": 2746,
      "悁": 2747,
      "悃": 2748,
      "悄": 2749,
      "悉": 2750,
      "悌": 2751,
      "悍": 2752,
      "悒": 2753,
      "悔": 2754,
      "悕": 2755,
      "悖": 2756,
      "悚": 2757,
      "悛": 2758,
      "悟": 2759,
      "悠": 2760,
      "悢": 2761,
      "患": 2762,
      "悤": 2763,
      "悦": 2764,
      "您": 2765,
      "悫": 2766,
      "悬": 2767,
      "悭": 2768,
      "悯": 2769,
      "悰": 2770,
      "悱": 2771,
      "悲": 2772,
      "悴": 2773,
      "悸": 2774,
      "悻": 2775,
      "悼": 2776,
      "悽": 2777,
      "悾": 2778,
      "惄": 2779,
      "情": 2780,
      "惆": 2781,
      "惇": 2782,
      "惉": 2783,
      "惊": 2784,
      "惋": 2785,
      "惎": 2786,
      "惏": 2787,
      "惑": 2788,
      "惓": 2789,
      "惔": 2790,
      "惕": 2791,
      "惘": 2792,
      "惙": 2793,
      "惚": 2794,
      "惛": 2795,
      "惜": 2796,
      "惝": 2797,
      "惟": 2798,
      "惠": 2799,
      "惢": 2800,
      "惣": 2801,
      "惦": 2802,
      "惧": 2803,
      "惨": 2804,
      "惩": 2805,
      "惫": 2806,
      "惬": 2807,
      "惭": 2808,
      "惮": 2809,
      "惯": 2810,
      "惰": 2811,
      "想": 2812,
      "惴": 2813,
      "惵": 2814,
      "惶": 2815,
      "惷": 2816,
      "惹": 2817,
      "惺": 2818,
      "愀": 2819,
      "愁": 2820,
      "愆": 2821,
      "愈": 2822,
      "愉": 2823,
      "愊": 2824,
      "愎": 2825,
      "意": 2826,
      "愒": 2827,
      "愔": 2828,
      "愕": 2829,
      "愚": 2830,
      "愞": 2831,
      "感": 2832,
      "愠": 2833,
      "愡": 2834,
      "愤": 2835,
      "愥": 2836,
      "愦": 2837,
      "愧": 2838,
      "愫": 2839,
      "愬": 2840,
      "愯": 2841,
      "愰": 2842,
      "愺": 2843,
      "愿": 2844,
      "慁": 2845,
      "慄": 2846,
      "慅": 2847,
      "慆": 2848,
      "慇": 2849,
      "慈": 2850,
      "慊": 2851,
      "慌": 2852,
      "慎": 2853,
      "慑": 2854,
      "慕": 2855,
      "慝": 2856,
      "慞": 2857,
      "慠": 2858,
      "慢": 2859,
      "慥": 2860,
      "慦": 2861,
      "慧": 2862,
      "慨": 2863,
      "慬": 2864,
      "慭": 2865,
      "慰": 2866,
      "慱": 2867,
      "慵": 2868,
      "慷": 2869,
      "慹": 2870,
      "慺": 2871,
      "憀": 2872,
      "憁": 2873,
      "憃": 2874,
      "憍": 2875,
      "憎": 2876,
      "憔": 2877,
      "憕": 2878,
      "憖": 2879,
      "憙": 2880,
      "憝": 2881,
      "憣": 2882,
      "憧": 2883,
      "憨": 2884,
      "憩": 2885,
      "憬": 2886,
      "憭": 2887,
      "憯": 2888,
      "憸": 2889,
      "憹": 2890,
      "憺": 2891,
      "憽": 2892,
      "憾": 2893,
      "懀": 2894,
      "懂": 2895,
      "懅": 2896,
      "懆": 2897,
      "懈": 2898,
      "懊": 2899,
      "懋": 2900,
      "懑": 2901,
      "懒": 2902,
      "懔": 2903,
      "懘": 2904,
      "懜": 2905,
      "懞": 2906,
      "懠": 2907,
      "懡": 2908,
      "懥": 2909,
      "懦": 2910,
      "懩": 2911,
      "懭": 2912,
      "懮": 2913,
      "懰": 2914,
      "懵": 2915,
      "懹": 2916,
      "懿": 2917,
      "戄": 2918,
      "戆": 2919,
      "戈": 2920,
      "戊": 2921,
      "戋": 2922,
      "戌": 2923,
      "戍": 2924,
      "戎": 2925,
      "戏": 2926,
      "成": 2927,
      "我": 2928,
      "戒": 2929,
      "戕": 2930,
      "或": 2931,
      "戗": 2932,
      "战": 2933,
      "戙": 2934,
      "戚": 2935,
      "戛": 2936,
      "戟": 2937,
      "戡": 2938,
      "戢": 2939,
      "戣": 2940,
      "截": 2941,
      "戬": 2942,
      "戮": 2943,
      "戳": 2944,
      "戴": 2945,
      "户": 2946,
      "戺": 2947,
      "戻": 2948,
      "戽": 2949,
      "戾": 2950,
      "房": 2951,
      "所": 2952,
      "扁": 2953,
      "扃": 2954,
      "扅": 2955,
      "扆": 2956,
      "扇": 2957,
      "扈": 2958,
      "扉": 2959,
      "扊": 2960,
      "手": 2961,
      "才": 2962,
      "扎": 2963,
      "扑": 2964,
      "扒": 2965,
      "打": 2966,
      "扔": 2967,
      "托": 2968,
      "扛": 2969,
      "扡": 2970,
      "扢": 2971,
      "扣": 2972,
      "扤": 2973,
      "扦": 2974,
      "执": 2975,
      "扩": 2976,
      "扪": 2977,
      "扫": 2978,
      "扬": 2979,
      "扭": 2980,
      "扮": 2981,
      "扯": 2982,
      "扰": 2983,
      "扱": 2984,
      "扳": 2985,
      "扶": 2986,
      "批": 2987,
      "扺": 2988,
      "扼": 2989,
      "找": 2990,
      "承": 2991,
      "技": 2992,
      "抃": 2993,
      "抄": 2994,
      "抆": 2995,
      "抇": 2996,
      "抉": 2997,
      "把": 2998,
      "抏": 2999,
      "抑": 3000,
      "抒": 3001,
      "抓": 3002,
      "抔": 3003,
      "投": 3004,
      "抖": 3005,
      "抗": 3006,
      "折": 3007,
      "抚": 3008,
      "抛": 3009,
      "抟": 3010,
      "抠": 3011,
      "抡": 3012,
      "抢": 3013,
      "护": 3014,
      "报": 3015,
      "抨": 3016,
      "披": 3017,
      "抬": 3018,
      "抰": 3019,
      "抱": 3020,
      "抳": 3021,
      "抵": 3022,
      "抶": 3023,
      "抷": 3024,
      "抹": 3025,
      "抺": 3026,
      "押": 3027,
      "抽": 3028,
      "抿": 3029,
      "拂": 3030,
      "拄": 3031,
      "担": 3032,
      "拆": 3033,
      "拇": 3034,
      "拈": 3035,
      "拉": 3036,
      "拊": 3037,
      "拌": 3038,
      "拍": 3039,
      "拎": 3040,
      "拐": 3041,
      "拒": 3042,
      "拓": 3043,
      "拔": 3044,
      "拖": 3045,
      "拗": 3046,
      "拘": 3047,
      "拙": 3048,
      "拚": 3049,
      "招": 3050,
      "拜": 3051,
      "拟": 3052,
      "拢": 3053,
      "拣": 3054,
      "拥": 3055,
      "拦": 3056,
      "拧": 3057,
      "拨": 3058,
      "择": 3059,
      "拫": 3060,
      "括": 3061,
      "拭": 3062,
      "拮": 3063,
      "拯": 3064,
      "拱": 3065,
      "拲": 3066,
      "拳": 3067,
      "拴": 3068,
      "拶": 3069,
      "拷": 3070,
      "拼": 3071,
      "拽": 3072,
      "拾": 3073,
      "拿": 3074,
      "持": 3075,
      "挂": 3076,
      "挃": 3077,
      "指": 3078,
      "挈": 3079,
      "按": 3080,
      "挍": 3081,
      "挏": 3082,
      "挐": 3083,
      "挑": 3084,
      "挕": 3085,
      "挖": 3086,
      "挚": 3087,
      "挛": 3088,
      "挝": 3089,
      "挞": 3090,
      "挟": 3091,
      "挠": 3092,
      "挡": 3093,
      "挢": 3094,
      "挣": 3095,
      "挤": 3096,
      "挥": 3097,
      "挦": 3098,
      "挨": 3099,
      "挪": 3100,
      "挫": 3101,
      "振": 3102,
      "挲": 3103,
      "挶": 3104,
      "挹": 3105,
      "挺": 3106,
      "挻": 3107,
      "挼": 3108,
      "挽": 3109,
      "捂": 3110,
      "捃": 3111,
      "捆": 3112,
      "捉": 3113,
      "捋": 3114,
      "捍": 3115,
      "捎": 3116,
      "捏": 3117,
      "捐": 3118,
      "捒": 3119,
      "捕": 3120,
      "捖": 3121,
      "捞": 3122,
      "损": 3123,
      "捡": 3124,
      "换": 3125,
      "捣": 3126,
      "捥": 3127,
      "捧": 3128,
      "捩": 3129,
      "捭": 3130,
      "据": 3131,
      "捲": 3132,
      "捶": 3133,
      "捷": 3134,
      "捺": 3135,
      "捻": 3136,
      "捼": 3137,
      "捽": 3138,
      "捾": 3139,
      "掀": 3140,
      "掁": 3141,
      "掇": 3142,
      "授": 3143,
      "掉": 3144,
      "掊": 3145,
      "掌": 3146,
      "掎": 3147,
      "掏": 3148,
      "掐": 3149,
      "排": 3150,
      "掔": 3151,
      "掖": 3152,
      "掘": 3153,
      "掞": 3154,
      "掠": 3155,
      "探": 3156,
      "掣": 3157,
      "掤": 3158,
      "接": 3159,
      "控": 3160,
      "推": 3161,
      "掩": 3162,
      "措": 3163,
      "掫": 3164,
      "掬": 3165,
      "掭": 3166,
      "掯": 3167,
      "掳": 3168,
      "掴": 3169,
      "掷": 3170,
      "掸": 3171,
      "掺": 3172,
      "掾": 3173,
      "掿": 3174,
      "揄": 3175,
      "揆": 3176,
      "揇": 3177,
      "揉": 3178,
      "揌": 3179,
      "揍": 3180,
      "揎": 3181,
      "描": 3182,
      "提": 3183,
      "插": 3184,
      "揔": 3185,
      "揕": 3186,
      "揖": 3187,
      "揠": 3188,
      "握": 3189,
      "揣": 3190,
      "揥": 3191,
      "揩": 3192,
      "揪": 3193,
      "揫": 3194,
      "揬": 3195,
      "揭": 3196,
      "揰": 3197,
      "揱": 3198,
      "揲": 3199,
      "揳": 3200,
      "援": 3201,
      "揵": 3202,
      "揶": 3203,
      "揸": 3204,
      "揽": 3205,
      "揾": 3206,
      "揿": 3207,
      "搀": 3208,
      "搁": 3209,
      "搂": 3210,
      "搅": 3211,
      "搆": 3212,
      "搉": 3213,
      "搊": 3214,
      "搋": 3215,
      "搏": 3216,
      "搐": 3217,
      "搒": 3218,
      "搓": 3219,
      "搔": 3220,
      "搕": 3221,
      "搜": 3222,
      "搞": 3223,
      "搟": 3224,
      "搢": 3225,
      "搣": 3226,
      "搥": 3227,
      "搦": 3228,
      "搪": 3229,
      "搬": 3230,
      "搭": 3231,
      "搯": 3232,
      "搰": 3233,
      "搳": 3234,
      "搴": 3235,
      "携": 3236,
      "搽": 3237,
      "摄": 3238,
      "摅": 3239,
      "摆": 3240,
      "摇": 3241,
      "摈": 3242,
      "摊": 3243,
      "摋": 3244,
      "摎": 3245,
      "摏": 3246,
      "摐": 3247,
      "摒": 3248,
      "摘": 3249,
      "摛": 3250,
      "摝": 3251,
      "摧": 3252,
      "摩": 3253,
      "摭": 3254,
      "摮": 3255,
      "摴": 3256,
      "摵": 3257,
      "摸": 3258,
      "摹": 3259,
      "摺": 3260,
      "摽": 3261,
      "撄": 3262,
      "撅": 3263,
      "撇": 3264,
      "撋": 3265,
      "撍": 3266,
      "撑": 3267,
      "撒": 3268,
      "撕": 3269,
      "撗": 3270,
      "撙": 3271,
      "撚": 3272,
      "撝": 3273,
      "撞": 3274,
      "撤": 3275,
      "撩": 3276,
      "播": 3277,
      "撮": 3278,
      "撰": 3279,
      "撱": 3280,
      "撶": 3281,
      "撷": 3282,
      "撸": 3283,
      "撺": 3284,
      "撼": 3285,
      "擂": 3286,
      "擅": 3287,
      "擉": 3288,
      "操": 3289,
      "擎": 3290,
      "擐": 3291,
      "擒": 3292,
      "擗": 3293,
      "擘": 3294,
      "擞": 3295,
      "擢": 3296,
      "擦": 3297,
      "擪": 3298,
      "擭": 3299,
      "擸": 3300,
      "擽": 3301,
      "擿": 3302,
      "攀": 3303,
      "攃": 3304,
      "攈": 3305,
      "攉": 3306,
      "攎": 3307,
      "攐": 3308,
      "攑": 3309,
      "攒": 3310,
      "攓": 3311,
      "攕": 3312,
      "攘": 3313,
      "攞": 3314,
      "攥": 3315,
      "攦": 3316,
      "攧": 3317,
      "攫": 3318,
      "支": 3319,
      "攲": 3320,
      "攴": 3321,
      "收": 3322,
      "攸": 3323,
      "改": 3324,
      "攺": 3325,
      "攻": 3326,
      "攽": 3327,
      "放": 3328,
      "政": 3329,
      "故": 3330,
      "效": 3331,
      "敉": 3332,
      "敌": 3333,
      "敏": 3334,
      "救": 3335,
      "敓": 3336,
      "敔": 3337,
      "敕": 3338,
      "敖": 3339,
      "教": 3340,
      "敚": 3341,
      "敛": 3342,
      "敝": 3343,
      "敞": 3344,
      "敡": 3345,
      "敢": 3346,
      "散": 3347,
      "敦": 3348,
      "敧": 3349,
      "敩": 3350,
      "敬": 3351,
      "敮": 3352,
      "数": 3353,
      "敲": 3354,
      "整": 3355,
      "敷": 3356,
      "斁": 3357,
      "文": 3358,
      "斋": 3359,
      "斌": 3360,
      "斐": 3361,
      "斑": 3362,
      "斓": 3363,
      "斔": 3364,
      "斗": 3365,
      "料": 3366,
      "斛": 3367,
      "斜": 3368,
      "斝": 3369,
      "斟": 3370,
      "斠": 3371,
      "斡": 3372,
      "斤": 3373,
      "斥": 3374,
      "斧": 3375,
      "斨": 3376,
      "斩": 3377,
      "斫": 3378,
      "断": 3379,
      "斮": 3380,
      "斯": 3381,
      "新": 3382,
      "斲": 3383,
      "斶": 3384,
      "斸": 3385,
      "方": 3386,
      "於": 3387,
      "施": 3388,
      "斿": 3389,
      "旁": 3390,
      "旂": 3391,
      "旃": 3392,
      "旄": 3393,
      "旅": 3394,
      "旆": 3395,
      "旋": 3396,
      "旌": 3397,
      "旎": 3398,
      "族": 3399,
      "旐": 3400,
      "旒": 3401,
      "旓": 3402,
      "旔": 3403,
      "旖": 3404,
      "旗": 3405,
      "旝": 3406,
      "旞": 3407,
      "旟": 3408,
      "无": 3409,
      "旡": 3410,
      "既": 3411,
      "日": 3412,
      "旦": 3413,
      "旧": 3414,
      "旨": 3415,
      "早": 3416,
      "旬": 3417,
      "旭": 3418,
      "旰": 3419,
      "旱": 3420,
      "旴": 3421,
      "旵": 3422,
      "时": 3423,
      "旷": 3424,
      "旸": 3425,
      "旺": 3426,
      "旻": 3427,
      "旼": 3428,
      "旿": 3429,
      "昀": 3430,
      "昂": 3431,
      "昃": 3432,
      "昆": 3433,
      "昈": 3434,
      "昉": 3435,
      "昊": 3436,
      "昌": 3437,
      "明": 3438,
      "昏": 3439,
      "昐": 3440,
      "昒": 3441,
      "易": 3442,
      "昔": 3443,
      "昕": 3444,
      "昙": 3445,
      "昜": 3446,
      "昝": 3447,
      "星": 3448,
      "映": 3449,
      "昡": 3450,
      "春": 3451,
      "昧": 3452,
      "昨": 3453,
      "昩": 3454,
      "昭": 3455,
      "是": 3456,
      "昱": 3457,
      "昲": 3458,
      "昳": 3459,
      "昴": 3460,
      "昵": 3461,
      "昶": 3462,
      "昼": 3463,
      "昽": 3464,
      "显": 3465,
      "晁": 3466,
      "晃": 3467,
      "晋": 3468,
      "晌": 3469,
      "晏": 3470,
      "晒": 3471,
      "晓": 3472,
      "晔": 3473,
      "晕": 3474,
      "晖": 3475,
      "晙": 3476,
      "晚": 3477,
      "晛": 3478,
      "晞": 3479,
      "晟": 3480,
      "晡": 3481,
      "晢": 3482,
      "晤": 3483,
      "晦": 3484,
      "晨": 3485,
      "晬": 3486,
      "普": 3487,
      "景": 3488,
      "晰": 3489,
      "晱": 3490,
      "晴": 3491,
      "晶": 3492,
      "晷": 3493,
      "晹": 3494,
      "智": 3495,
      "晻": 3496,
      "晼": 3497,
      "晾": 3498,
      "暂": 3499,
      "暄": 3500,
      "暇": 3501,
      "暌": 3502,
      "暍": 3503,
      "暑": 3504,
      "暕": 3505,
      "暖": 3506,
      "暗": 3507,
      "暝": 3508,
      "暡": 3509,
      "暤": 3510,
      "暧": 3511,
      "暨": 3512,
      "暩": 3513,
      "暪": 3514,
      "暮": 3515,
      "暯": 3516,
      "暴": 3517,
      "暵": 3518,
      "暸": 3519,
      "暹": 3520,
      "暼": 3521,
      "暾": 3522,
      "曀": 3523,
      "曈": 3524,
      "曋": 3525,
      "曕": 3526,
      "曙": 3527,
      "曚": 3528,
      "曛": 3529,
      "曜": 3530,
      "曝": 3531,
      "曤": 3532,
      "曦": 3533,
      "曩": 3534,
      "曰": 3535,
      "曲": 3536,
      "曳": 3537,
      "更": 3538,
      "曶": 3539,
      "曷": 3540,
      "曹": 3541,
      "曼": 3542,
      "曾": 3543,
      "替": 3544,
      "最": 3545,
      "朄": 3546,
      "朅": 3547,
      "月": 3548,
      "有": 3549,
      "朋": 3550,
      "朌": 3551,
      "服": 3552,
      "朏": 3553,
      "朐": 3554,
      "朒": 3555,
      "朓": 3556,
      "朔": 3557,
      "朕": 3558,
      "朗": 3559,
      "朘": 3560,
      "望": 3561,
      "朝": 3562,
      "期": 3563,
      "朣": 3564,
      "朦": 3565,
      "木": 3566,
      "朩": 3567,
      "未": 3568,
      "末": 3569,
      "本": 3570,
      "札": 3571,
      "朮": 3572,
      "术": 3573,
      "朱": 3574,
      "朲": 3575,
      "朳": 3576,
      "朴": 3577,
      "朵": 3578,
      "机": 3579,
      "朽": 3580,
      "杀": 3581,
      "杂": 3582,
      "权": 3583,
      "杅": 3584,
      "杆": 3585,
      "杈": 3586,
      "杉": 3587,
      "杌": 3588,
      "李": 3589,
      "杏": 3590,
      "材": 3591,
      "村": 3592,
      "杓": 3593,
      "杔": 3594,
      "杕": 3595,
      "杖": 3596,
      "杗": 3597,
      "杙": 3598,
      "杜": 3599,
      "杞": 3600,
      "束": 3601,
      "杠": 3602,
      "条": 3603,
      "来": 3604,
      "杨": 3605,
      "杪": 3606,
      "杭": 3607,
      "杮": 3608,
      "杯": 3609,
      "杰": 3610,
      "杲": 3611,
      "杳": 3612,
      "杴": 3613,
      "杵": 3614,
      "杶": 3615,
      "杷": 3616,
      "杻": 3617,
      "杼": 3618,
      "松": 3619,
      "板": 3620,
      "极": 3621,
      "构": 3622,
      "枇": 3623,
      "枉": 3624,
      "枊": 3625,
      "枋": 3626,
      "枌": 3627,
      "枍": 3628,
      "析": 3629,
      "枑": 3630,
      "枒": 3631,
      "枓": 3632,
      "枕": 3633,
      "林": 3634,
      "枘": 3635,
      "枙": 3636,
      "枚": 3637,
      "果": 3638,
      "枝": 3639,
      "枞": 3640,
      "枢": 3641,
      "枣": 3642,
      "枥": 3643,
      "枧": 3644,
      "枨": 3645,
      "枪": 3646,
      "枫": 3647,
      "枭": 3648,
      "枮": 3649,
      "枯": 3650,
      "枰": 3651,
      "枲": 3652,
      "枳": 3653,
      "枵": 3654,
      "架": 3655,
      "枷": 3656,
      "枸": 3657,
      "枹": 3658,
      "枻": 3659,
      "枼": 3660,
      "柁": 3661,
      "柂": 3662,
      "柄": 3663,
      "柅": 3664,
      "柆": 3665,
      "柈": 3666,
      "柍": 3667,
      "柎": 3668,
      "柏": 3669,
      "某": 3670,
      "柑": 3671,
      "染": 3672,
      "柔": 3673,
      "柘": 3674,
      "柙": 3675,
      "柚": 3676,
      "柜": 3677,
      "柝": 3678,
      "柞": 3679,
      "柢": 3680,
      "柤": 3681,
      "查": 3682,
      "柦": 3683,
      "柧": 3684,
      "柩": 3685,
      "柪": 3686,
      "柬": 3687,
      "柮": 3688,
      "柯": 3689,
      "柰": 3690,
      "柱": 3691,
      "柲": 3692,
      "柳": 3693,
      "柴": 3694,
      "柷": 3695,
      "柸": 3696,
      "柽": 3697,
      "柿": 3698,
      "栀": 3699,
      "栅": 3700,
      "标": 3701,
      "栈": 3702,
      "栉": 3703,
      "栊": 3704,
      "栋": 3705,
      "栌": 3706,
      "栎": 3707,
      "栏": 3708,
      "树": 3709,
      "栒": 3710,
      "栓": 3711,
      "栖": 3712,
      "栗": 3713,
      "栘": 3714,
      "栝": 3715,
      "栟": 3716,
      "校": 3717,
      "栩": 3718,
      "株": 3719,
      "栫": 3720,
      "栭": 3721,
      "栮": 3722,
      "栱": 3723,
      "栲": 3724,
      "栳": 3725,
      "栴": 3726,
      "样": 3727,
      "核": 3728,
      "根": 3729,
      "栺": 3730,
      "格": 3731,
      "栽": 3732,
      "栾": 3733,
      "桀": 3734,
      "桁": 3735,
      "桂": 3736,
      "桃": 3737,
      "桄": 3738,
      "桅": 3739,
      "案": 3740,
      "桉": 3741,
      "桋": 3742,
      "桌": 3743,
      "桎": 3744,
      "桐": 3745,
      "桑": 3746,
      "桓": 3747,
      "桔": 3748,
      "桕": 3749,
      "桠": 3750,
      "桡": 3751,
      "桢": 3752,
      "档": 3753,
      "桤": 3754,
      "桥": 3755,
      "桦": 3756,
      "桧": 3757,
      "桨": 3758,
      "桩": 3759,
      "桫": 3760,
      "桯": 3761,
      "桱": 3762,
      "桲": 3763,
      "桴": 3764,
      "桶": 3765,
      "桷": 3766,
      "桹": 3767,
      "梀": 3768,
      "梁": 3769,
      "梃": 3770,
      "梅": 3771,
      "梆": 3772,
      "梌": 3773,
      "梏": 3774,
      "梐": 3775,
      "梓": 3776,
      "梗": 3777,
      "梜": 3778,
      "梠": 3779,
      "梡": 3780,
      "梢": 3781,
      "梦": 3782,
      "梧": 3783,
      "梨": 3784,
      "梩": 3785,
      "梬": 3786,
      "梭": 3787,
      "梯": 3788,
      "械": 3789,
      "梱": 3790,
      "梳": 3791,
      "梴": 3792,
      "梵": 3793,
      "梼": 3794,
      "梿": 3795,
      "检": 3796,
      "棁": 3797,
      "棂": 3798,
      "棇": 3799,
      "棉": 3800,
      "棋": 3801,
      "棍": 3802,
      "棐": 3803,
      "棒": 3804,
      "棓": 3805,
      "棔": 3806,
      "棕": 3807,
      "棘": 3808,
      "棙": 3809,
      "棚": 3810,
      "棠": 3811,
      "棣": 3812,
      "棨": 3813,
      "棫": 3814,
      "棬": 3815,
      "森": 3816,
      "棰": 3817,
      "棱": 3818,
      "棵": 3819,
      "棹": 3820,
      "棺": 3821,
      "棻": 3822,
      "棼": 3823,
      "棽": 3824,
      "椀": 3825,
      "椁": 3826,
      "椄": 3827,
      "椅": 3828,
      "椆": 3829,
      "椊": 3830,
      "植": 3831,
      "椎": 3832,
      "椑": 3833,
      "椒": 3834,
      "椓": 3835,
      "椔": 3836,
      "椟": 3837,
      "椠": 3838,
      "椤": 3839,
      "椫": 3840,
      "椭": 3841,
      "椮": 3842,
      "椰": 3843,
      "椳": 3844,
      "椵": 3845,
      "椷": 3846,
      "椸": 3847,
      "椹": 3848,
      "椽": 3849,
      "椿": 3850,
      "楀": 3851,
      "楂": 3852,
      "楄": 3853,
      "楅": 3854,
      "楇": 3855,
      "楔": 3856,
      "楖": 3857,
      "楗": 3858,
      "楙": 3859,
      "楚": 3860,
      "楛": 3861,
      "楝": 3862,
      "楞": 3863,
      "楟": 3864,
      "楠": 3865,
      "楢": 3866,
      "楣": 3867,
      "楥": 3868,
      "楦": 3869,
      "楩": 3870,
      "楪": 3871,
      "楫": 3872,
      "楮": 3873,
      "楯": 3874,
      "楱": 3875,
      "楶": 3876,
      "楷": 3877,
      "楸": 3878,
      "楹": 3879,
      "楼": 3880,
      "概": 3881,
      "榄": 3882,
      "榅": 3883,
      "榆": 3884,
      "榇": 3885,
      "榈": 3886,
      "榉": 3887,
      "榍": 3888,
      "榑": 3889,
      "榔": 3890,
      "榕": 3891,
      "榖": 3892,
      "榛": 3893,
      "榜": 3894,
      "榝": 3895,
      "榠": 3896,
      "榡": 3897,
      "榥": 3898,
      "榧": 3899,
      "榨": 3900,
      "榭": 3901,
      "榰": 3902,
      "榱": 3903,
      "榴": 3904,
      "榷": 3905,
      "榸": 3906,
      "榹": 3907,
      "榻": 3908,
      "榼": 3909,
      "榾": 3910,
      "槁": 3911,
      "槃": 3912,
      "槅": 3913,
      "槊": 3914,
      "槌": 3915,
      "槎": 3916,
      "槐": 3917,
      "槔": 3918,
      "槚": 3919,
      "槛": 3920,
      "槜": 3921,
      "槟": 3922,
      "槠": 3923,
      "槢": 3924,
      "槥": 3925,
      "槩": 3926,
      "槭": 3927,
      "槱": 3928,
      "槲": 3929,
      "槴": 3930,
      "槵": 3931,
      "槷": 3932,
      "槸": 3933,
      "槽": 3934,
      "槿": 3935,
      "樈": 3936,
      "樊": 3937,
      "樏": 3938,
      "樕": 3939,
      "樗": 3940,
      "樛": 3941,
      "樟": 3942,
      "樠": 3943,
      "模": 3944,
      "樢": 3945,
      "樨": 3946,
      "横": 3947,
      "樯": 3948,
      "樱": 3949,
      "樲": 3950,
      "樴": 3951,
      "樵": 3952,
      "樻": 3953,
      "樽": 3954,
      "樾": 3955,
      "橄": 3956,
      "橇": 3957,
      "橐": 3958,
      "橑": 3959,
      "橖": 3960,
      "橘": 3961,
      "橙": 3962,
      "橛": 3963,
      "橡": 3964,
      "橤": 3965,
      "橥": 3966,
      "橦": 3967,
      "橧": 3968,
      "橱": 3969,
      "橶": 3970,
      "橹": 3971,
      "橼": 3972,
      "橿": 3973,
      "檀": 3974,
      "檃": 3975,
      "檄": 3976,
      "檈": 3977,
      "檎": 3978,
      "檐": 3979,
      "檕": 3980,
      "檗": 3981,
      "檛": 3982,
      "檞": 3983,
      "檠": 3984,
      "檡": 3985,
      "檨": 3986,
      "檿": 3987,
      "櫋": 3988,
      "櫑": 3989,
      "櫖": 3990,
      "櫜": 3991,
      "櫩": 3992,
      "櫰": 3993,
      "櫹": 3994,
      "櫾": 3995,
      "欀": 3996,
      "欂": 3997,
      "欃": 3998,
      "欈": 3999,
      "欋": 4000,
      "欐": 4001,
      "欠": 4002,
      "次": 4003,
      "欢": 4004,
      "欣": 4005,
      "欤": 4006,
      "欧": 4007,
      "欬": 4008,
      "欱": 4009,
      "欲": 4010,
      "欷": 4011,
      "欸": 4012,
      "欹": 4013,
      "欺": 4014,
      "欻": 4015,
      "款": 4016,
      "欿": 4017,
      "歃": 4018,
      "歅": 4019,
      "歆": 4020,
      "歇": 4021,
      "歈": 4022,
      "歉": 4023,
      "歊": 4024,
      "歌": 4025,
      "歍": 4026,
      "歔": 4027,
      "歘": 4028,
      "歙": 4029,
      "歛": 4030,
      "歜": 4031,
      "歠": 4032,
      "止": 4033,
      "正": 4034,
      "此": 4035,
      "步": 4036,
      "武": 4037,
      "歧": 4038,
      "歪": 4039,
      "歭": 4040,
      "歹": 4041,
      "死": 4042,
      "歼": 4043,
      "殁": 4044,
      "殂": 4045,
      "殃": 4046,
      "殄": 4047,
      "殆": 4048,
      "殇": 4049,
      "殉": 4050,
      "殊": 4051,
      "残": 4052,
      "殍": 4053,
      "殑": 4054,
      "殒": 4055,
      "殓": 4056,
      "殖": 4057,
      "殚": 4058,
      "殛": 4059,
      "殡": 4060,
      "殢": 4061,
      "殣": 4062,
      "殪": 4063,
      "殳": 4064,
      "殴": 4065,
      "段": 4066,
      "殷": 4067,
      "殸": 4068,
      "殽": 4069,
      "殿": 4070,
      "毁": 4071,
      "毂": 4072,
      "毅": 4073,
      "毋": 4074,
      "母": 4075,
      "每": 4076,
      "毒": 4077,
      "毓": 4078,
      "比": 4079,
      "毕": 4080,
      "毖": 4081,
      "毗": 4082,
      "毙": 4083,
      "毚": 4084,
      "毛": 4085,
      "毡": 4086,
      "毢": 4087,
      "毣": 4088,
      "毦": 4089,
      "毨": 4090,
      "毫": 4091,
      "毬": 4092,
      "毯": 4093,
      "毰": 4094,
      "毳": 4095,
      "毵": 4096,
      "毷": 4097,
      "毸": 4098,
      "毹": 4099,
      "毼": 4100,
      "毾": 4101,
      "氁": 4102,
      "氂": 4103,
      "氃": 4104,
      "氄": 4105,
      "氅": 4106,
      "氉": 4107,
      "氋": 4108,
      "氍": 4109,
      "氎": 4110,
      "氏": 4111,
      "氐": 4112,
      "民": 4113,
      "氓": 4114,
      "气": 4115,
      "氛": 4116,
      "氤": 4117,
      "氲": 4118,
      "水": 4119,
      "氶": 4120,
      "永": 4121,
      "氿": 4122,
      "汀": 4123,
      "汁": 4124,
      "求": 4125,
      "汇": 4126,
      "汉": 4127,
      "汊": 4128,
      "汍": 4129,
      "汎": 4130,
      "汐": 4131,
      "汔": 4132,
      "汕": 4133,
      "汗": 4134,
      "汘": 4135,
      "汛": 4136,
      "汜": 4137,
      "汝": 4138,
      "汞": 4139,
      "江": 4140,
      "池": 4141,
      "污": 4142,
      "汤": 4143,
      "汥": 4144,
      "汧": 4145,
      "汨": 4146,
      "汩": 4147,
      "汪": 4148,
      "汭": 4149,
      "汰": 4150,
      "汲": 4151,
      "汳": 4152,
      "汴": 4153,
      "汵": 4154,
      "汶": 4155,
      "汹": 4156,
      "汽": 4157,
      "汾": 4158,
      "沁": 4159,
      "沂": 4160,
      "沃": 4161,
      "沄": 4162,
      "沅": 4163,
      "沆": 4164,
      "沇": 4165,
      "沈": 4166,
      "沉": 4167,
      "沌": 4168,
      "沏": 4169,
      "沐": 4170,
      "沓": 4171,
      "沔": 4172,
      "沕": 4173,
      "沗": 4174,
      "沘": 4175,
      "沙": 4176,
      "沚": 4177,
      "沛": 4178,
      "沜": 4179,
      "沟": 4180,
      "没": 4181,
      "沣": 4182,
      "沤": 4183,
      "沥": 4184,
      "沦": 4185,
      "沧": 4186,
      "沨": 4187,
      "沩": 4188,
      "沪": 4189,
      "沫": 4190,
      "沬": 4191,
      "沭": 4192,
      "沮": 4193,
      "沰": 4194,
      "沱": 4195,
      "沲": 4196,
      "河": 4197,
      "沴": 4198,
      "沵": 4199,
      "沸": 4200,
      "油": 4201,
      "治": 4202,
      "沼": 4203,
      "沽": 4204,
      "沾": 4205,
      "沿": 4206,
      "泂": 4207,
      "泃": 4208,
      "泄": 4209,
      "泅": 4210,
      "泆": 4211,
      "泇": 4212,
      "泉": 4213,
      "泊": 4214,
      "泌": 4215,
      "泎": 4216,
      "泐": 4217,
      "泒": 4218,
      "泓": 4219,
      "泔": 4220,
      "法": 4221,
      "泖": 4222,
      "泗": 4223,
      "泙": 4224,
      "泚": 4225,
      "泛": 4226,
      "泜": 4227,
      "泞": 4228,
      "泠": 4229,
      "泡": 4230,
      "波": 4231,
      "泣": 4232,
      "泥": 4233,
      "泦": 4234,
      "泧": 4235,
      "注": 4236,
      "泪": 4237,
      "泫": 4238,
      "泬": 4239,
      "泮": 4240,
      "泯": 4241,
      "泰": 4242,
      "泱": 4243,
      "泳": 4244,
      "泷": 4245,
      "泸": 4246,
      "泺": 4247,
      "泻": 4248,
      "泼": 4249,
      "泽": 4250,
      "泾": 4251,
      "洁": 4252,
      "洄": 4253,
      "洇": 4254,
      "洋": 4255,
      "洌": 4256,
      "洎": 4257,
      "洏": 4258,
      "洐": 4259,
      "洑": 4260,
      "洒": 4261,
      "洓": 4262,
      "洗": 4263,
      "洙": 4264,
      "洚": 4265,
      "洛": 4266,
      "洞": 4267,
      "洟": 4268,
      "津": 4269,
      "洧": 4270,
      "洨": 4271,
      "洪": 4272,
      "洫": 4273,
      "洭": 4274,
      "洮": 4275,
      "洱": 4276,
      "洲": 4277,
      "洳": 4278,
      "洴": 4279,
      "洵": 4280,
      "洸": 4281,
      "洹": 4282,
      "洺": 4283,
      "活": 4284,
      "洼": 4285,
      "洽": 4286,
      "派": 4287,
      "洿": 4288,
      "流": 4289,
      "浃": 4290,
      "浅": 4291,
      "浆": 4292,
      "浇": 4293,
      "浈": 4294,
      "浉": 4295,
      "浊": 4296,
      "测": 4297,
      "浍": 4298,
      "济": 4299,
      "浏": 4300,
      "浐": 4301,
      "浑": 4302,
      "浒": 4303,
      "浓": 4304,
      "浔": 4305,
      "浕": 4306,
      "浘": 4307,
      "浙": 4308,
      "浚": 4309,
      "浛": 4310,
      "浜": 4311,
      "浞": 4312,
      "浟": 4313,
      "浠": 4314,
      "浡": 4315,
      "浣": 4316,
      "浤": 4317,
      "浥": 4318,
      "浦": 4319,
      "浩": 4320,
      "浪": 4321,
      "浮": 4322,
      "浯": 4323,
      "浰": 4324,
      "浲": 4325,
      "浴": 4326,
      "海": 4327,
      "浸": 4328,
      "浻": 4329,
      "浼": 4330,
      "浽": 4331,
      "浿": 4332,
      "涂": 4333,
      "涅": 4334,
      "涆": 4335,
      "消": 4336,
      "涉": 4337,
      "涊": 4338,
      "涌": 4339,
      "涎": 4340,
      "涏": 4341,
      "涑": 4342,
      "涓": 4343,
      "涔": 4344,
      "涕": 4345,
      "涖": 4346,
      "涘": 4347,
      "涛": 4348,
      "涝": 4349,
      "涞": 4350,
      "涟": 4351,
      "涠": 4352,
      "涡": 4353,
      "涢": 4354,
      "涣": 4355,
      "涤": 4356,
      "润": 4357,
      "涧": 4358,
      "涨": 4359,
      "涩": 4360,
      "涪": 4361,
      "涬": 4362,
      "涮": 4363,
      "涯": 4364,
      "液": 4365,
      "涳": 4366,
      "涴": 4367,
      "涵": 4368,
      "涷": 4369,
      "涸": 4370,
      "涺": 4371,
      "涿": 4372,
      "淀": 4373,
      "淂": 4374,
      "淄": 4375,
      "淅": 4376,
      "淆": 4377,
      "淇": 4378,
      "淈": 4379,
      "淊": 4380,
      "淋": 4381,
      "淎": 4382,
      "淑": 4383,
      "淖": 4384,
      "淘": 4385,
      "淙": 4386,
      "淜": 4387,
      "淝": 4388,
      "淞": 4389,
      "淟": 4390,
      "淡": 4391,
      "淤": 4392,
      "淦": 4393,
      "淩": 4394,
      "淫": 4395,
      "淬": 4396,
      "淮": 4397,
      "淯": 4398,
      "淰": 4399,
      "深": 4400,
      "淲": 4401,
      "淳": 4402,
      "混": 4403,
      "淹": 4404,
      "添": 4405,
      "淼": 4406,
      "渀": 4407,
      "清": 4408,
      "渊": 4409,
      "渌": 4410,
      "渍": 4411,
      "渎": 4412,
      "渏": 4413,
      "渐": 4414,
      "渑": 4415,
      "渔": 4416,
      "渗": 4417,
      "渚": 4418,
      "渝": 4419,
      "渟": 4420,
      "渠": 4421,
      "渡": 4422,
      "渣": 4423,
      "渤": 4424,
      "渥": 4425,
      "温": 4426,
      "渫": 4427,
      "渭": 4428,
      "港": 4429,
      "渰": 4430,
      "渲": 4431,
      "渴": 4432,
      "游": 4433,
      "渹": 4434,
      "渺": 4435,
      "渻": 4436,
      "渼": 4437,
      "湃": 4438,
      "湄": 4439,
      "湉": 4440,
      "湋": 4441,
      "湍": 4442,
      "湎": 4443,
      "湑": 4444,
      "湓": 4445,
      "湔": 4446,
      "湖": 4447,
      "湗": 4448,
      "湘": 4449,
      "湛": 4450,
      "湜": 4451,
      "湝": 4452,
      "湟": 4453,
      "湢": 4454,
      "湣": 4455,
      "湥": 4456,
      "湩": 4457,
      "湫": 4458,
      "湮": 4459,
      "湱": 4460,
      "湲": 4461,
      "湳": 4462,
      "湴": 4463,
      "湾": 4464,
      "湿": 4465,
      "溁": 4466,
      "溃": 4467,
      "溅": 4468,
      "溆": 4469,
      "溇": 4470,
      "溉": 4471,
      "溏": 4472,
      "源": 4473,
      "溓": 4474,
      "溔": 4475,
      "溘": 4476,
      "溛": 4477,
      "溜": 4478,
      "溟": 4479,
      "溠": 4480,
      "溢": 4481,
      "溥": 4482,
      "溦": 4483,
      "溧": 4484,
      "溪": 4485,
      "溯": 4486,
      "溰": 4487,
      "溱": 4488,
      "溲": 4489,
      "溴": 4490,
      "溵": 4491,
      "溶": 4492,
      "溷": 4493,
      "溺": 4494,
      "溽": 4495,
      "滀": 4496,
      "滁": 4497,
      "滂": 4498,
      "滃": 4499,
      "滆": 4500,
      "滇": 4501,
      "滈": 4502,
      "滉": 4503,
      "滋": 4504,
      "滍": 4505,
      "滏": 4506,
      "滑": 4507,
      "滓": 4508,
      "滔": 4509,
      "滕": 4510,
      "滘": 4511,
      "滚": 4512,
      "滞": 4513,
      "滟": 4514,
      "满": 4515,
      "滢": 4516,
      "滤": 4517,
      "滥": 4518,
      "滦": 4519,
      "滨": 4520,
      "滩": 4521,
      "滪": 4522,
      "滫": 4523,
      "滮": 4524,
      "滱": 4525,
      "滴": 4526,
      "滹": 4527,
      "漂": 4528,
      "漅": 4529,
      "漆": 4530,
      "漇": 4531,
      "漈": 4532,
      "漉": 4533,
      "漍": 4534,
      "漏": 4535,
      "漐": 4536,
      "漓": 4537,
      "演": 4538,
      "漕": 4539,
      "漘": 4540,
      "漙": 4541,
      "漠": 4542,
      "漦": 4543,
      "漩": 4544,
      "漪": 4545,
      "漫": 4546,
      "漭": 4547,
      "漯": 4548,
      "漰": 4549,
      "漱": 4550,
      "漳": 4551,
      "漴": 4552,
      "漶": 4553,
      "漷": 4554,
      "漻": 4555,
      "漼": 4556,
      "漾": 4557,
      "潆": 4558,
      "潇": 4559,
      "潈": 4560,
      "潋": 4561,
      "潍": 4562,
      "潎": 4563,
      "潏": 4564,
      "潖": 4565,
      "潗": 4566,
      "潘": 4567,
      "潜": 4568,
      "潝": 4569,
      "潞": 4570,
      "潟": 4571,
      "潢": 4572,
      "潦": 4573,
      "潨": 4574,
      "潩": 4575,
      "潬": 4576,
      "潭": 4577,
      "潮": 4578,
      "潲": 4579,
      "潴": 4580,
      "潵": 4581,
      "潸": 4582,
      "潺": 4583,
      "潻": 4584,
      "潼": 4585,
      "潾": 4586,
      "澄": 4587,
      "澈": 4588,
      "澉": 4589,
      "澌": 4590,
      "澍": 4591,
      "澎": 4592,
      "澒": 4593,
      "澓": 4594,
      "澚": 4595,
      "澜": 4596,
      "澡": 4597,
      "澥": 4598,
      "澧": 4599,
      "澨": 4600,
      "澪": 4601,
      "澫": 4602,
      "澬": 4603,
      "澳": 4604,
      "澴": 4605,
      "澶": 4606,
      "澹": 4607,
      "澼": 4608,
      "澽": 4609,
      "澾": 4610,
      "激": 4611,
      "濂": 4612,
      "濆": 4613,
      "濈": 4614,
      "濉": 4615,
      "濊": 4616,
      "濎": 4617,
      "濏": 4618,
      "濑": 4619,
      "濒": 4620,
      "濙": 4621,
      "濛": 4622,
      "濞": 4623,
      "濠": 4624,
      "濡": 4625,
      "濩": 4626,
      "濮": 4627,
      "濯": 4628,
      "濲": 4629,
      "瀁": 4630,
      "瀄": 4631,
      "瀌": 4632,
      "瀍": 4633,
      "瀎": 4634,
      "瀑": 4635,
      "瀔": 4636,
      "瀚": 4637,
      "瀛": 4638,
      "瀜": 4639,
      "瀡": 4640,
      "瀣": 4641,
      "瀤": 4642,
      "瀫": 4643,
      "瀰": 4644,
      "瀵": 4645,
      "瀸": 4646,
      "瀹": 4647,
      "瀺": 4648,
      "瀼": 4649,
      "灂": 4650,
      "灅": 4651,
      "灈": 4652,
      "灉": 4653,
      "灊": 4654,
      "灌": 4655,
      "灏": 4656,
      "灙": 4657,
      "灞": 4658,
      "灢": 4659,
      "火": 4660,
      "灭": 4661,
      "灯": 4662,
      "灰": 4663,
      "灴": 4664,
      "灵": 4665,
      "灶": 4666,
      "灸": 4667,
      "灺": 4668,
      "灼": 4669,
      "灾": 4670,
      "灿": 4671,
      "炀": 4672,
      "炉": 4673,
      "炊": 4674,
      "炎": 4675,
      "炒": 4676,
      "炕": 4677,
      "炖": 4678,
      "炘": 4679,
      "炙": 4680,
      "炜": 4681,
      "炟": 4682,
      "炤": 4683,
      "炫": 4684,
      "炬": 4685,
      "炭": 4686,
      "炮": 4687,
      "炯": 4688,
      "炰": 4689,
      "炱": 4690,
      "炳": 4691,
      "炷": 4692,
      "炸": 4693,
      "点": 4694,
      "炼": 4695,
      "炽": 4696,
      "烁": 4697,
      "烂": 4698,
      "烈": 4699,
      "烓": 4700,
      "烔": 4701,
      "烘": 4702,
      "烙": 4703,
      "烛": 4704,
      "烜": 4705,
      "烝": 4706,
      "烟": 4707,
      "烤": 4708,
      "烦": 4709,
      "烧": 4710,
      "烨": 4711,
      "烩": 4712,
      "烫": 4713,
      "烬": 4714,
      "热": 4715,
      "烱": 4716,
      "烹": 4717,
      "烺": 4718,
      "烽": 4719,
      "烿": 4720,
      "焂": 4721,
      "焄": 4722,
      "焇": 4723,
      "焉": 4724,
      "焑": 4725,
      "焕": 4726,
      "焘": 4727,
      "焙": 4728,
      "焚": 4729,
      "焜": 4730,
      "焞": 4731,
      "焦": 4732,
      "焫": 4733,
      "焭": 4734,
      "焮": 4735,
      "焰": 4736,
      "焱": 4737,
      "然": 4738,
      "煁": 4739,
      "煅": 4740,
      "煆": 4741,
      "煇": 4742,
      "煊": 4743,
      "煌": 4744,
      "煎": 4745,
      "煖": 4746,
      "煚": 4747,
      "煜": 4748,
      "煞": 4749,
      "煠": 4750,
      "煤": 4751,
      "煦": 4752,
      "照": 4753,
      "煨": 4754,
      "煮": 4755,
      "煴": 4756,
      "煼": 4757,
      "煽": 4758,
      "熁": 4759,
      "熄": 4760,
      "熇": 4761,
      "熉": 4762,
      "熊": 4763,
      "熌": 4764,
      "熏": 4765,
      "熓": 4766,
      "熔": 4767,
      "熙": 4768,
      "熛": 4769,
      "熟": 4770,
      "熠": 4771,
      "熣": 4772,
      "熨": 4773,
      "熬": 4774,
      "熭": 4775,
      "熯": 4776,
      "熰": 4777,
      "熳": 4778,
      "熸": 4779,
      "熹": 4780,
      "熺": 4781,
      "燀": 4782,
      "燂": 4783,
      "燃": 4784,
      "燄": 4785,
      "燉": 4786,
      "燋": 4787,
      "燎": 4788,
      "燏": 4789,
      "燐": 4790,
      "燔": 4791,
      "燕": 4792,
      "燖": 4793,
      "燠": 4794,
      "燡": 4795,
      "燥": 4796,
      "燧": 4797,
      "燬": 4798,
      "燮": 4799,
      "燹": 4800,
      "爁": 4801,
      "爄": 4802,
      "爆": 4803,
      "爇": 4804,
      "爊": 4805,
      "爓": 4806,
      "爚": 4807,
      "爝": 4808,
      "爞": 4809,
      "爟": 4810,
      "爢": 4811,
      "爣": 4812,
      "爨": 4813,
      "爪": 4814,
      "爬": 4815,
      "爰": 4816,
      "爱": 4817,
      "爵": 4818,
      "父": 4819,
      "爷": 4820,
      "爸": 4821,
      "爹": 4822,
      "爻": 4823,
      "爽": 4824,
      "牁": 4825,
      "牂": 4826,
      "片": 4827,
      "版": 4828,
      "牌": 4829,
      "牍": 4830,
      "牏": 4831,
      "牒": 4832,
      "牖": 4833,
      "牗": 4834,
      "牙": 4835,
      "牚": 4836,
      "牛": 4837,
      "牜": 4838,
      "牝": 4839,
      "牟": 4840,
      "牡": 4841,
      "牢": 4842,
      "牣": 4843,
      "牦": 4844,
      "牧": 4845,
      "物": 4846,
      "牯": 4847,
      "牱": 4848,
      "牲": 4849,
      "牴": 4850,
      "牵": 4851,
      "牷": 4852,
      "牸": 4853,
      "特": 4854,
      "牺": 4855,
      "牾": 4856,
      "犀": 4857,
      "犁": 4858,
      "犄": 4859,
      "犉": 4860,
      "犊": 4861,
      "犍": 4862,
      "犏": 4863,
      "犒": 4864,
      "犗": 4865,
      "犘": 4866,
      "犛": 4867,
      "犠": 4868,
      "犬": 4869,
      "犯": 4870,
      "犴": 4871,
      "犵": 4872,
      "状": 4873,
      "犷": 4874,
      "犸": 4875,
      "犹": 4876,
      "犺": 4877,
      "狁": 4878,
      "狂": 4879,
      "狃": 4880,
      "狄": 4881,
      "狈": 4882,
      "狉": 4883,
      "狋": 4884,
      "狌": 4885,
      "狎": 4886,
      "狐": 4887,
      "狒": 4888,
      "狓": 4889,
      "狖": 4890,
      "狗": 4891,
      "狘": 4892,
      "狙": 4893,
      "狝": 4894,
      "狞": 4895,
      "狠": 4896,
      "狡": 4897,
      "狤": 4898,
      "狨": 4899,
      "狩": 4900,
      "狫": 4901,
      "独": 4902,
      "狭": 4903,
      "狮": 4904,
      "狯": 4905,
      "狰": 4906,
      "狱": 4907,
      "狲": 4908,
      "狴": 4909,
      "狵": 4910,
      "狶": 4911,
      "狷": 4912,
      "狸": 4913,
      "狺": 4914,
      "狻": 4915,
      "狼": 4916,
      "猃": 4917,
      "猇": 4918,
      "猊": 4919,
      "猋": 4920,
      "猎": 4921,
      "猓": 4922,
      "猕": 4923,
      "猖": 4924,
      "猗": 4925,
      "猘": 4926,
      "猛": 4927,
      "猜": 4928,
      "猝": 4929,
      "猢": 4930,
      "猥": 4931,
      "猧": 4932,
      "猩": 4933,
      "猪": 4934,
      "猫": 4935,
      "猬": 4936,
      "猭": 4937,
      "献": 4938,
      "猰": 4939,
      "猱": 4940,
      "猳": 4941,
      "猴": 4942,
      "猵": 4943,
      "猷": 4944,
      "猺": 4945,
      "猾": 4946,
      "猿": 4947,
      "獉": 4948,
      "獍": 4949,
      "獐": 4950,
      "獒": 4951,
      "獗": 4952,
      "獚": 4953,
      "獝": 4954,
      "獞": 4955,
      "獠": 4956,
      "獡": 4957,
      "獦": 4958,
      "獧": 4959,
      "獬": 4960,
      "獭": 4961,
      "獯": 4962,
      "獳": 4963,
      "獶": 4964,
      "獹": 4965,
      "獾": 4966,
      "玃": 4967,
      "玄": 4968,
      "玆": 4969,
      "率": 4970,
      "玈": 4971,
      "玉": 4972,
      "玊": 4973,
      "王": 4974,
      "玎": 4975,
      "玑": 4976,
      "玒": 4977,
      "玓": 4978,
      "玕": 4979,
      "玖": 4980,
      "玗": 4981,
      "玙": 4982,
      "玚": 4983,
      "玛": 4984,
      "玞": 4985,
      "玟": 4986,
      "玠": 4987,
      "玡": 4988,
      "玢": 4989,
      "玦": 4990,
      "玩": 4991,
      "玫": 4992,
      "玭": 4993,
      "玮": 4994,
      "环": 4995,
      "现": 4996,
      "玱": 4997,
      "玲": 4998,
      "玳": 4999,
      "玷": 5000,
      "玺": 5001,
      "玻": 5002,
      "玼": 5003,
      "玿": 5004,
      "珀": 5005,
      "珂": 5006,
      "珃": 5007,
      "珈": 5008,
      "珉": 5009,
      "珊": 5010,
      "珌": 5011,
      "珍": 5012,
      "珏": 5013,
      "珐": 5014,
      "珑": 5015,
      "珓": 5016,
      "珙": 5017,
      "珞": 5018,
      "珠": 5019,
      "珣": 5020,
      "珥": 5021,
      "珧": 5022,
      "珩": 5023,
      "班": 5024,
      "珰": 5025,
      "珲": 5026,
      "珴": 5027,
      "珵": 5028,
      "珷": 5029,
      "珽": 5030,
      "琁": 5031,
      "球": 5032,
      "琅": 5033,
      "理": 5034,
      "琉": 5035,
      "琊": 5036,
      "琏": 5037,
      "琐": 5038,
      "琕": 5039,
      "琚": 5040,
      "琛": 5041,
      "琢": 5042,
      "琤": 5043,
      "琥": 5044,
      "琦": 5045,
      "琨": 5046,
      "琪": 5047,
      "琫": 5048,
      "琬": 5049,
      "琭": 5050,
      "琮": 5051,
      "琯": 5052,
      "琰": 5053,
      "琲": 5054,
      "琳": 5055,
      "琴": 5056,
      "琵": 5057,
      "琶": 5058,
      "琼": 5059,
      "瑀": 5060,
      "瑁": 5061,
      "瑄": 5062,
      "瑆": 5063,
      "瑊": 5064,
      "瑑": 5065,
      "瑕": 5066,
      "瑖": 5067,
      "瑗": 5068,
      "瑙": 5069,
      "瑚": 5070,
      "瑛": 5071,
      "瑜": 5072,
      "瑝": 5073,
      "瑞": 5074,
      "瑟": 5075,
      "瑦": 5076,
      "瑨": 5077,
      "瑩": 5078,
      "瑰": 5079,
      "瑱": 5080,
      "瑳": 5081,
      "瑶": 5082,
      "瑸": 5083,
      "瑽": 5084,
      "瑾": 5085,
      "瑿": 5086,
      "璀": 5087,
      "璁": 5088,
      "璃": 5089,
      "璅": 5090,
      "璆": 5091,
      "璇": 5092,
      "璈": 5093,
      "璊": 5094,
      "璋": 5095,
      "璎": 5096,
      "璐": 5097,
      "璖": 5098,
      "璗": 5099,
      "璘": 5100,
      "璚": 5101,
      "璜": 5102,
      "璞": 5103,
      "璟": 5104,
      "璠": 5105,
      "璧": 5106,
      "璨": 5107,
      "璩": 5108,
      "璪": 5109,
      "璬": 5110,
      "璱": 5111,
      "璲": 5112,
      "璺": 5113,
      "璿": 5114,
      "瓀": 5115,
      "瓅": 5116,
      "瓈": 5117,
      "瓐": 5118,
      "瓒": 5119,
      "瓓": 5120,
      "瓘": 5121,
      "瓜": 5122,
      "瓞": 5123,
      "瓟": 5124,
      "瓠": 5125,
      "瓢": 5126,
      "瓣": 5127,
      "瓤": 5128,
      "瓦": 5129,
      "瓮": 5130,
      "瓯": 5131,
      "瓴": 5132,
      "瓶": 5133,
      "瓷": 5134,
      "瓻": 5135,
      "瓿": 5136,
      "甀": 5137,
      "甃": 5138,
      "甄": 5139,
      "甈": 5140,
      "甉": 5141,
      "甊": 5142,
      "甋": 5143,
      "甍": 5144,
      "甑": 5145,
      "甒": 5146,
      "甓": 5147,
      "甔": 5148,
      "甗": 5149,
      "甘": 5150,
      "甚": 5151,
      "甜": 5152,
      "生": 5153,
      "甡": 5154,
      "甤": 5155,
      "甥": 5156,
      "用": 5157,
      "甫": 5158,
      "甬": 5159,
      "田": 5160,
      "由": 5161,
      "甲": 5162,
      "申": 5163,
      "电": 5164,
      "男": 5165,
      "甸": 5166,
      "町": 5167,
      "画": 5168,
      "甾": 5169,
      "畀": 5170,
      "畅": 5171,
      "畇": 5172,
      "畈": 5173,
      "畋": 5174,
      "界": 5175,
      "畎": 5176,
      "畏": 5177,
      "畐": 5178,
      "畔": 5179,
      "留": 5180,
      "畚": 5181,
      "畛": 5182,
      "畜": 5183,
      "畟": 5184,
      "畤": 5185,
      "略": 5186,
      "畦": 5187,
      "番": 5188,
      "畬": 5189,
      "畯": 5190,
      "畲": 5191,
      "畴": 5192,
      "畸": 5193,
      "畹": 5194,
      "畺": 5195,
      "畻": 5196,
      "畼": 5197,
      "畿": 5198,
      "疁": 5199,
      "疃": 5200,
      "疄": 5201,
      "疆": 5202,
      "疋": 5203,
      "疍": 5204,
      "疏": 5205,
      "疐": 5206,
      "疑": 5207,
      "疖": 5208,
      "疗": 5209,
      "疚": 5210,
      "疟": 5211,
      "疠": 5212,
      "疡": 5213,
      "疢": 5214,
      "疣": 5215,
      "疤": 5216,
      "疥": 5217,
      "疫": 5218,
      "疮": 5219,
      "疯": 5220,
      "疱": 5221,
      "疲": 5222,
      "疴": 5223,
      "疵": 5224,
      "疸": 5225,
      "疹": 5226,
      "疼": 5227,
      "疽": 5228,
      "疾": 5229,
      "痀": 5230,
      "痁": 5231,
      "痂": 5232,
      "病": 5233,
      "症": 5234,
      "痈": 5235,
      "痊": 5236,
      "痌": 5237,
      "痍": 5238,
      "痎": 5239,
      "痏": 5240,
      "痒": 5241,
      "痔": 5242,
      "痕": 5243,
      "痗": 5244,
      "痘": 5245,
      "痛": 5246,
      "痞": 5247,
      "痟": 5248,
      "痡": 5249,
      "痣": 5250,
      "痤": 5251,
      "痦": 5252,
      "痫": 5253,
      "痬": 5254,
      "痰": 5255,
      "痱": 5256,
      "痴": 5257,
      "痹": 5258,
      "痼": 5259,
      "痽": 5260,
      "痾": 5261,
      "痿": 5262,
      "瘀": 5263,
      "瘁": 5264,
      "瘃": 5265,
      "瘅": 5266,
      "瘆": 5267,
      "瘈": 5268,
      "瘉": 5269,
      "瘏": 5270,
      "瘐": 5271,
      "瘕": 5272,
      "瘖": 5273,
      "瘗": 5274,
      "瘘": 5275,
      "瘙": 5276,
      "瘝": 5277,
      "瘟": 5278,
      "瘠": 5279,
      "瘢": 5280,
      "瘣": 5281,
      "瘤": 5282,
      "瘥": 5283,
      "瘦": 5284,
      "瘨": 5285,
      "瘪": 5286,
      "瘫": 5287,
      "瘯": 5288,
      "瘱": 5289,
      "瘳": 5290,
      "瘴": 5291,
      "瘵": 5292,
      "瘸": 5293,
      "瘼": 5294,
      "瘽": 5295,
      "瘾": 5296,
      "瘿": 5297,
      "癃": 5298,
      "癈": 5299,
      "癊": 5300,
      "癌": 5301,
      "癖": 5302,
      "癗": 5303,
      "癙": 5304,
      "癞": 5305,
      "癣": 5306,
      "癫": 5307,
      "癯": 5308,
      "癸": 5309,
      "登": 5310,
      "白": 5311,
      "百": 5312,
      "皀": 5313,
      "皂": 5314,
      "皃": 5315,
      "的": 5316,
      "皆": 5317,
      "皇": 5318,
      "皈": 5319,
      "皋": 5320,
      "皎": 5321,
      "皑": 5322,
      "皓": 5323,
      "皕": 5324,
      "皖": 5325,
      "皙": 5326,
      "皛": 5327,
      "皞": 5328,
      "皠": 5329,
      "皤": 5330,
      "皦": 5331,
      "皪": 5332,
      "皬": 5333,
      "皭": 5334,
      "皮": 5335,
      "皱": 5336,
      "皲": 5337,
      "皴": 5338,
      "皵": 5339,
      "皿": 5340,
      "盂": 5341,
      "盅": 5342,
      "盆": 5343,
      "盈": 5344,
      "盉": 5345,
      "益": 5346,
      "盌": 5347,
      "盍": 5348,
      "盎": 5349,
      "盏": 5350,
      "盐": 5351,
      "监": 5352,
      "盒": 5353,
      "盔": 5354,
      "盖": 5355,
      "盗": 5356,
      "盘": 5357,
      "盛": 5358,
      "盝": 5359,
      "盟": 5360,
      "盥": 5361,
      "盦": 5362,
      "盩": 5363,
      "盬": 5364,
      "盭": 5365,
      "目": 5366,
      "盰": 5367,
      "盱": 5368,
      "盲": 5369,
      "盳": 5370,
      "直": 5371,
      "相": 5372,
      "盹": 5373,
      "盻": 5374,
      "盼": 5375,
      "盾": 5376,
      "省": 5377,
      "眄": 5378,
      "眇": 5379,
      "眈": 5380,
      "眉": 5381,
      "眊": 5382,
      "看": 5383,
      "眏": 5384,
      "眑": 5385,
      "眕": 5386,
      "眙": 5387,
      "眚": 5388,
      "真": 5389,
      "眠": 5390,
      "眢": 5391,
      "眤": 5392,
      "眦": 5393,
      "眨": 5394,
      "眩": 5395,
      "眬": 5396,
      "眭": 5397,
      "眯": 5398,
      "眴": 5399,
      "眵": 5400,
      "眶": 5401,
      "眷": 5402,
      "眸": 5403,
      "眹": 5404,
      "眺": 5405,
      "眼": 5406,
      "着": 5407,
      "睁": 5408,
      "睃": 5409,
      "睅": 5410,
      "睆": 5411,
      "睇": 5412,
      "睈": 5413,
      "睊": 5414,
      "睋": 5415,
      "睌": 5416,
      "睍": 5417,
      "睎": 5418,
      "睐": 5419,
      "睑": 5420,
      "睒": 5421,
      "睕": 5422,
      "睗": 5423,
      "睘": 5424,
      "睚": 5425,
      "睛": 5426,
      "睟": 5427,
      "睡": 5428,
      "睢": 5429,
      "督": 5430,
      "睥": 5431,
      "睦": 5432,
      "睨": 5433,
      "睩": 5434,
      "睪": 5435,
      "睫": 5436,
      "睬": 5437,
      "睯": 5438,
      "睱": 5439,
      "睲": 5440,
      "睸": 5441,
      "睹": 5442,
      "睺": 5443,
      "睽": 5444,
      "睿": 5445,
      "瞀": 5446,
      "瞂": 5447,
      "瞆": 5448,
      "瞋": 5449,
      "瞌": 5450,
      "瞍": 5451,
      "瞎": 5452,
      "瞑": 5453,
      "瞒": 5454,
      "瞖": 5455,
      "瞙": 5456,
      "瞠": 5457,
      "瞢": 5458,
      "瞤": 5459,
      "瞥": 5460,
      "瞧": 5461,
      "瞩": 5462,
      "瞪": 5463,
      "瞬": 5464,
      "瞭": 5465,
      "瞰": 5466,
      "瞱": 5467,
      "瞳": 5468,
      "瞵": 5469,
      "瞷": 5470,
      "瞻": 5471,
      "瞽": 5472,
      "瞾": 5473,
      "瞿": 5474,
      "矄": 5475,
      "矆": 5476,
      "矇": 5477,
      "矉": 5478,
      "矊": 5479,
      "矌": 5480,
      "矍": 5481,
      "矐": 5482,
      "矑": 5483,
      "矕": 5484,
      "矗": 5485,
      "矛": 5486,
      "矜": 5487,
      "矞": 5488,
      "矢": 5489,
      "矣": 5490,
      "知": 5491,
      "矧": 5492,
      "矨": 5493,
      "矩": 5494,
      "矫": 5495,
      "矬": 5496,
      "短": 5497,
      "矮": 5498,
      "矰": 5499,
      "矱": 5500,
      "矲": 5501,
      "石": 5502,
      "矶": 5503,
      "矸": 5504,
      "矹": 5505,
      "矻": 5506,
      "矼": 5507,
      "矾": 5508,
      "矿": 5509,
      "砀": 5510,
      "码": 5511,
      "砂": 5512,
      "砅": 5513,
      "砉": 5514,
      "砊": 5515,
      "砌": 5516,
      "砍": 5517,
      "砑": 5518,
      "砒": 5519,
      "研": 5520,
      "砖": 5521,
      "砗": 5522,
      "砚": 5523,
      "砛": 5524,
      "砝": 5525,
      "砟": 5526,
      "砠": 5527,
      "砢": 5528,
      "砣": 5529,
      "砥": 5530,
      "砦": 5531,
      "砧": 5532,
      "砭": 5533,
      "砮": 5534,
      "砰": 5535,
      "破": 5536,
      "砸": 5537,
      "砺": 5538,
      "砻": 5539,
      "砾": 5540,
      "础": 5541,
      "硁": 5542,
      "硉": 5543,
      "硌": 5544,
      "硎": 5545,
      "硐": 5546,
      "硔": 5547,
      "硕": 5548,
      "硖": 5549,
      "硗": 5550,
      "硙": 5551,
      "硝": 5552,
      "硠": 5553,
      "硩": 5554,
      "硫": 5555,
      "硬": 5556,
      "确": 5557,
      "硾": 5558,
      "硿": 5559,
      "碇": 5560,
      "碈": 5561,
      "碉": 5562,
      "碊": 5563,
      "碌": 5564,
      "碍": 5565,
      "碎": 5566,
      "碏": 5567,
      "碐": 5568,
      "碑": 5569,
      "碓": 5570,
      "碖": 5571,
      "碗": 5572,
      "碙": 5573,
      "碚": 5574,
      "碛": 5575,
      "碜": 5576,
      "碝": 5577,
      "碞": 5578,
      "碟": 5579,
      "碡": 5580,
      "碣": 5581,
      "碧": 5582,
      "碨": 5583,
      "碯": 5584,
      "碰": 5585,
      "碱": 5586,
      "碲": 5587,
      "碳": 5588,
      "碶": 5589,
      "碻": 5590,
      "碾": 5591,
      "磁": 5592,
      "磅": 5593,
      "磈": 5594,
      "磉": 5595,
      "磊": 5596,
      "磋": 5597,
      "磏": 5598,
      "磐": 5599,
      "磓": 5600,
      "磔": 5601,
      "磕": 5602,
      "磝": 5603,
      "磞": 5604,
      "磡": 5605,
      "磥": 5606,
      "磨": 5607,
      "磩": 5608,
      "磬": 5609,
      "磲": 5610,
      "磳": 5611,
      "磴": 5612,
      "磶": 5613,
      "磷": 5614,
      "磹": 5615,
      "磺": 5616,
      "磻": 5617,
      "磾": 5618,
      "礀": 5619,
      "礁": 5620,
      "礅": 5621,
      "礉": 5622,
      "礌": 5623,
      "礐": 5624,
      "礓": 5625,
      "礛": 5626,
      "礜": 5627,
      "礞": 5628,
      "礡": 5629,
      "礤": 5630,
      "礧": 5631,
      "礨": 5632,
      "礰": 5633,
      "礴": 5634,
      "示": 5635,
      "礼": 5636,
      "礽": 5637,
      "社": 5638,
      "礿": 5639,
      "祀": 5640,
      "祁": 5641,
      "祂": 5642,
      "祃": 5643,
      "祅": 5644,
      "祆": 5645,
      "祇": 5646,
      "祈": 5647,
      "祉": 5648,
      "祊": 5649,
      "祋": 5650,
      "祎": 5651,
      "祏": 5652,
      "祐": 5653,
      "祓": 5654,
      "祔": 5655,
      "祖": 5656,
      "祗": 5657,
      "祚": 5658,
      "祛": 5659,
      "祜": 5660,
      "祝": 5661,
      "神": 5662,
      "祟": 5663,
      "祠": 5664,
      "祢": 5665,
      "祤": 5666,
      "祥": 5667,
      "祧": 5668,
      "票": 5669,
      "祫": 5670,
      "祭": 5671,
      "祯": 5672,
      "祲": 5673,
      "祴": 5674,
      "祷": 5675,
      "祸": 5676,
      "祹": 5677,
      "祺": 5678,
      "祻": 5679,
      "祼": 5680,
      "禀": 5681,
      "禁": 5682,
      "禄": 5683,
      "禅": 5684,
      "禆": 5685,
      "禊": 5686,
      "禋": 5687,
      "福": 5688,
      "禔": 5689,
      "禖": 5690,
      "禗": 5691,
      "禘": 5692,
      "禜": 5693,
      "禠": 5694,
      "禦": 5695,
      "禧": 5696,
      "禨": 5697,
      "禫": 5698,
      "禳": 5699,
      "禹": 5700,
      "禺": 5701,
      "离": 5702,
      "禼": 5703,
      "禽": 5704,
      "禾": 5705,
      "秀": 5706,
      "私": 5707,
      "秃": 5708,
      "秆": 5709,
      "秉": 5710,
      "秋": 5711,
      "种": 5712,
      "秏": 5713,
      "科": 5714,
      "秒": 5715,
      "秕": 5716,
      "秖": 5717,
      "秘": 5718,
      "秞": 5719,
      "租": 5720,
      "秠": 5721,
      "秣": 5722,
      "秤": 5723,
      "秥": 5724,
      "秦": 5725,
      "秧": 5726,
      "秩": 5727,
      "秪": 5728,
      "秫": 5729,
      "秬": 5730,
      "秭": 5731,
      "积": 5732,
      "称": 5733,
      "秷": 5734,
      "秸": 5735,
      "秺": 5736,
      "移": 5737,
      "秼": 5738,
      "秽": 5739,
      "秾": 5740,
      "稀": 5741,
      "稂": 5742,
      "稃": 5743,
      "稄": 5744,
      "稆": 5745,
      "稊": 5746,
      "程": 5747,
      "稌": 5748,
      "稍": 5749,
      "税": 5750,
      "稏": 5751,
      "稑": 5752,
      "稔": 5753,
      "稗": 5754,
      "稚": 5755,
      "稛": 5756,
      "稞": 5757,
      "稠": 5758,
      "稣": 5759,
      "稧": 5760,
      "稨": 5761,
      "稯": 5762,
      "稳": 5763,
      "稷": 5764,
      "稹": 5765,
      "稻": 5766,
      "稼": 5767,
      "稽": 5768,
      "稿": 5769,
      "穄": 5770,
      "穆": 5771,
      "穇": 5772,
      "穈": 5773,
      "穊": 5774,
      "穋": 5775,
      "穑": 5776,
      "穗": 5777,
      "穜": 5778,
      "穟": 5779,
      "穥": 5780,
      "穧": 5781,
      "穫": 5782,
      "穮": 5783,
      "穰": 5784,
      "穱": 5785,
      "穴": 5786,
      "究": 5787,
      "穷": 5788,
      "穸": 5789,
      "穹": 5790,
      "空": 5791,
      "穾": 5792,
      "穿": 5793,
      "窀": 5794,
      "突": 5795,
      "窃": 5796,
      "窄": 5797,
      "窅": 5798,
      "窆": 5799,
      "窈": 5800,
      "窊": 5801,
      "窋": 5802,
      "窌": 5803,
      "窍": 5804,
      "窐": 5805,
      "窑": 5806,
      "窒": 5807,
      "窔": 5808,
      "窕": 5809,
      "窖": 5810,
      "窗": 5811,
      "窘": 5812,
      "窜": 5813,
      "窝": 5814,
      "窞": 5815,
      "窟": 5816,
      "窠": 5817,
      "窣": 5818,
      "窥": 5819,
      "窦": 5820,
      "窨": 5821,
      "窫": 5822,
      "窬": 5823,
      "窭": 5824,
      "窮": 5825,
      "窱": 5826,
      "窳": 5827,
      "窴": 5828,
      "窸": 5829,
      "窼": 5830,
      "窾": 5831,
      "窿": 5832,
      "竁": 5833,
      "立": 5834,
      "竖": 5835,
      "站": 5836,
      "竛": 5837,
      "竞": 5838,
      "竟": 5839,
      "章": 5840,
      "竣": 5841,
      "童": 5842,
      "竦": 5843,
      "竭": 5844,
      "竮": 5845,
      "端": 5846,
      "竹": 5847,
      "竺": 5848,
      "竻": 5849,
      "竽": 5850,
      "竿": 5851,
      "笃": 5852,
      "笄": 5853,
      "笆": 5854,
      "笈": 5855,
      "笊": 5856,
      "笋": 5857,
      "笏": 5858,
      "笐": 5859,
      "笑": 5860,
      "笓": 5861,
      "笔": 5862,
      "笕": 5863,
      "笙": 5864,
      "笛": 5865,
      "笞": 5866,
      "笠": 5867,
      "笤": 5868,
      "笥": 5869,
      "符": 5870,
      "笨": 5871,
      "笪": 5872,
      "笫": 5873,
      "第": 5874,
      "笭": 5875,
      "笮": 5876,
      "笯": 5877,
      "笱": 5878,
      "笳": 5879,
      "笴": 5880,
      "笺": 5881,
      "笼": 5882,
      "笾": 5883,
      "筀": 5884,
      "筅": 5885,
      "筇": 5886,
      "筈": 5887,
      "等": 5888,
      "筊": 5889,
      "筋": 5890,
      "筌": 5891,
      "筏": 5892,
      "筐": 5893,
      "筑": 5894,
      "筒": 5895,
      "答": 5896,
      "策": 5897,
      "筚": 5898,
      "筛": 5899,
      "筜": 5900,
      "筝": 5901,
      "筠": 5902,
      "筣": 5903,
      "筤": 5904,
      "筥": 5905,
      "筦": 5906,
      "筫": 5907,
      "筮": 5908,
      "筱": 5909,
      "筲": 5910,
      "筳": 5911,
      "筴": 5912,
      "筵": 5913,
      "筹": 5914,
      "筼": 5915,
      "签": 5916,
      "简": 5917,
      "箄": 5918,
      "箅": 5919,
      "箈": 5920,
      "箊": 5921,
      "箍": 5922,
      "箐": 5923,
      "箑": 5924,
      "箓": 5925,
      "箔": 5926,
      "箕": 5927,
      "箖": 5928,
      "算": 5929,
      "箘": 5930,
      "箙": 5931,
      "箛": 5932,
      "箜": 5933,
      "箠": 5934,
      "管": 5935,
      "箦": 5936,
      "箧": 5937,
      "箨": 5938,
      "箩": 5939,
      "箪": 5940,
      "箫": 5941,
      "箬": 5942,
      "箭": 5943,
      "箯": 5944,
      "箱": 5945,
      "箳": 5946,
      "箴": 5947,
      "箵": 5948,
      "箷": 5949,
      "箸": 5950,
      "箾": 5951,
      "篁": 5952,
      "篂": 5953,
      "篅": 5954,
      "篆": 5955,
      "篇": 5956,
      "篌": 5957,
      "篑": 5958,
      "篓": 5959,
      "篗": 5960,
      "篘": 5961,
      "篙": 5962,
      "篚": 5963,
      "篝": 5964,
      "篟": 5965,
      "篡": 5966,
      "篢": 5967,
      "篣": 5968,
      "篥": 5969,
      "篦": 5970,
      "篨": 5971,
      "篪": 5972,
      "篬": 5973,
      "篮": 5974,
      "篯": 5975,
      "篱": 5976,
      "篴": 5977,
      "篷": 5978,
      "篸": 5979,
      "篽": 5980,
      "篾": 5981,
      "篿": 5982,
      "簃": 5983,
      "簄": 5984,
      "簇": 5985,
      "簉": 5986,
      "簋": 5987,
      "簌": 5988,
      "簏": 5989,
      "簕": 5990,
      "簖": 5991,
      "簜": 5992,
      "簟": 5993,
      "簠": 5994,
      "簥": 5995,
      "簦": 5996,
      "簧": 5997,
      "簨": 5998,
      "簩": 5999,
      "簪": 6000,
      "簬": 6001,
      "簳": 6002,
      "簴": 6003,
      "簸": 6004,
      "簺": 6005,
      "簿": 6006,
      "籀": 6007,
      "籁": 6008,
      "籉": 6009,
      "籊": 6010,
      "籋": 6011,
      "籍": 6012,
      "籓": 6013,
      "籞": 6014,
      "籥": 6015,
      "籦": 6016,
      "籧": 6017,
      "籯": 6018,
      "米": 6019,
      "籴": 6020,
      "籸": 6021,
      "籹": 6022,
      "籺": 6023,
      "类": 6024,
      "籼": 6025,
      "籽": 6026,
      "粆": 6027,
      "粉": 6028,
      "粑": 6029,
      "粒": 6030,
      "粔": 6031,
      "粕": 6032,
      "粗": 6033,
      "粘": 6034,
      "粜": 6035,
      "粝": 6036,
      "粞": 6037,
      "粟": 6038,
      "粢": 6039,
      "粤": 6040,
      "粥": 6041,
      "粪": 6042,
      "粮": 6043,
      "粱": 6044,
      "粲": 6045,
      "粳": 6046,
      "粹": 6047,
      "粺": 6048,
      "粻": 6049,
      "粼": 6050,
      "粽": 6051,
      "精": 6052,
      "粿": 6053,
      "糁": 6054,
      "糅": 6055,
      "糇": 6056,
      "糈": 6057,
      "糊": 6058,
      "糍": 6059,
      "糒": 6060,
      "糕": 6061,
      "糖": 6062,
      "糗": 6063,
      "糙": 6064,
      "糜": 6065,
      "糟": 6066,
      "糠": 6067,
      "糦": 6068,
      "糨": 6069,
      "糯": 6070,
      "糵": 6071,
      "糸": 6072,
      "糺": 6073,
      "系": 6074,
      "糿": 6075,
      "紊": 6076,
      "紑": 6077,
      "紞": 6078,
      "紟": 6079,
      "素": 6080,
      "索": 6081,
      "紧": 6082,
      "紩": 6083,
      "紫": 6084,
      "紬": 6085,
      "累": 6086,
      "紽": 6087,
      "紾": 6088,
      "絁": 6089,
      "絅": 6090,
      "絇": 6091,
      "絓": 6092,
      "絖": 6093,
      "絙": 6094,
      "絜": 6095,
      "絣": 6096,
      "絪": 6097,
      "絮": 6098,
      "絷": 6099,
      "絺": 6100,
      "絻": 6101,
      "綀": 6102,
      "綄": 6103,
      "綅": 6104,
      "綍": 6105,
      "綖": 6106,
      "綝": 6107,
      "綟": 6108,
      "綦": 6109,
      "綪": 6110,
      "綮": 6111,
      "綵": 6112,
      "綷": 6113,
      "緀": 6114,
      "緃": 6115,
      "緉": 6116,
      "緌": 6117,
      "緎": 6118,
      "緤": 6119,
      "緰": 6120,
      "緵": 6121,
      "緸": 6122,
      "緺": 6123,
      "縆": 6124,
      "縓": 6125,
      "縠": 6126,
      "縡": 6127,
      "縢": 6128,
      "縩": 6129,
      "縰": 6130,
      "縳": 6131,
      "縺": 6132,
      "縻": 6133,
      "縼": 6134,
      "縿": 6135,
      "繁": 6136,
      "繂": 6137,
      "繄": 6138,
      "繇": 6139,
      "繊": 6140,
      "繗": 6141,
      "繘": 6142,
      "繣": 6143,
      "繫": 6144,
      "繲": 6145,
      "繵": 6146,
      "繶": 6147,
      "繸": 6148,
      "繻": 6149,
      "纁": 6150,
      "纂": 6151,
      "纆": 6152,
      "纑": 6153,
      "纕": 6154,
      "纚": 6155,
      "纛": 6156,
      "纠": 6157,
      "纡": 6158,
      "红": 6159,
      "纣": 6160,
      "纤": 6161,
      "纥": 6162,
      "约": 6163,
      "级": 6164,
      "纨": 6165,
      "纩": 6166,
      "纪": 6167,
      "纫": 6168,
      "纬": 6169,
      "纭": 6170,
      "纮": 6171,
      "纯": 6172,
      "纰": 6173,
      "纱": 6174,
      "纲": 6175,
      "纳": 6176,
      "纴": 6177,
      "纵": 6178,
      "纶": 6179,
      "纷": 6180,
      "纸": 6181,
      "纹": 6182,
      "纺": 6183,
      "纻": 6184,
      "纼": 6185,
      "纽": 6186,
      "纾": 6187,
      "线": 6188,
      "绀": 6189,
      "绁": 6190,
      "绂": 6191,
      "练": 6192,
      "组": 6193,
      "绅": 6194,
      "细": 6195,
      "织": 6196,
      "终": 6197,
      "绉": 6198,
      "绊": 6199,
      "绋": 6200,
      "绌": 6201,
      "绍": 6202,
      "绎": 6203,
      "经": 6204,
      "绐": 6205,
      "绑": 6206,
      "绒": 6207,
      "结": 6208,
      "绔": 6209,
      "绕": 6210,
      "绖": 6211,
      "绘": 6212,
      "给": 6213,
      "绚": 6214,
      "绛": 6215,
      "络": 6216,
      "绝": 6217,
      "绞": 6218,
      "统": 6219,
      "绠": 6220,
      "绡": 6221,
      "绢": 6222,
      "绣": 6223,
      "绤": 6224,
      "绥": 6225,
      "绦": 6226,
      "继": 6227,
      "绨": 6228,
      "绩": 6229,
      "绪": 6230,
      "绫": 6231,
      "续": 6232,
      "绮": 6233,
      "绯": 6234,
      "绰": 6235,
      "绲": 6236,
      "绳": 6237,
      "维": 6238,
      "绵": 6239,
      "绶": 6240,
      "绷": 6241,
      "绸": 6242,
      "绹": 6243,
      "绺": 6244,
      "绻": 6245,
      "综": 6246,
      "绽": 6247,
      "绾": 6248,
      "绿": 6249,
      "缀": 6250,
      "缁": 6251,
      "缃": 6252,
      "缄": 6253,
      "缅": 6254,
      "缆": 6255,
      "缇": 6256,
      "缈": 6257,
      "缉": 6258,
      "缊": 6259,
      "缋": 6260,
      "缌": 6261,
      "缎": 6262,
      "缏": 6263,
      "缑": 6264,
      "缒": 6265,
      "缓": 6266,
      "缔": 6267,
      "缕": 6268,
      "编": 6269,
      "缗": 6270,
      "缘": 6271,
      "缙": 6272,
      "缚": 6273,
      "缛": 6274,
      "缜": 6275,
      "缝": 6276,
      "缞": 6277,
      "缟": 6278,
      "缠": 6279,
      "缡": 6280,
      "缢": 6281,
      "缣": 6282,
      "缤": 6283,
      "缥": 6284,
      "缦": 6285,
      "缧": 6286,
      "缨": 6287,
      "缩": 6288,
      "缪": 6289,
      "缫": 6290,
      "缬": 6291,
      "缭": 6292,
      "缮": 6293,
      "缯": 6294,
      "缰": 6295,
      "缱": 6296,
      "缲": 6297,
      "缳": 6298,
      "缴": 6299,
      "缵": 6300,
      "缶": 6301,
      "缸": 6302,
      "缹": 6303,
      "缺": 6304,
      "缿": 6305,
      "罂": 6306,
      "罃": 6307,
      "罄": 6308,
      "罅": 6309,
      "罍": 6310,
      "罐": 6311,
      "网": 6312,
      "罒": 6313,
      "罔": 6314,
      "罕": 6315,
      "罗": 6316,
      "罘": 6317,
      "罙": 6318,
      "罚": 6319,
      "罛": 6320,
      "罝": 6321,
      "罟": 6322,
      "罡": 6323,
      "罢": 6324,
      "罥": 6325,
      "罦": 6326,
      "罧": 6327,
      "罨": 6328,
      "罩": 6329,
      "罪": 6330,
      "罫": 6331,
      "罭": 6332,
      "置": 6333,
      "罱": 6334,
      "署": 6335,
      "罳": 6336,
      "罴": 6337,
      "罶": 6338,
      "罹": 6339,
      "罻": 6340,
      "罽": 6341,
      "罾": 6342,
      "罿": 6343,
      "羁": 6344,
      "羃": 6345,
      "羉": 6346,
      "羊": 6347,
      "羌": 6348,
      "羍": 6349,
      "美": 6350,
      "羑": 6351,
      "羒": 6352,
      "羓": 6353,
      "羔": 6354,
      "羕": 6355,
      "羖": 6356,
      "羙": 6357,
      "羚": 6358,
      "羜": 6359,
      "羝": 6360,
      "羞": 6361,
      "羠": 6362,
      "羡": 6363,
      "群": 6364,
      "羫": 6365,
      "羭": 6366,
      "羯": 6367,
      "羱": 6368,
      "羲": 6369,
      "羵": 6370,
      "羸": 6371,
      "羹": 6372,
      "羺": 6373,
      "羼": 6374,
      "羽": 6375,
      "羾": 6376,
      "羿": 6377,
      "翀": 6378,
      "翁": 6379,
      "翂": 6380,
      "翃": 6381,
      "翅": 6382,
      "翊": 6383,
      "翌": 6384,
      "翍": 6385,
      "翎": 6386,
      "翐": 6387,
      "翔": 6388,
      "翕": 6389,
      "翘": 6390,
      "翙": 6391,
      "翚": 6392,
      "翛": 6393,
      "翟": 6394,
      "翠": 6395,
      "翡": 6396,
      "翣": 6397,
      "翥": 6398,
      "翨": 6399,
      "翩": 6400,
      "翮": 6401,
      "翯": 6402,
      "翰": 6403,
      "翱": 6404,
      "翲": 6405,
      "翳": 6406,
      "翴": 6407,
      "翻": 6408,
      "翼": 6409,
      "翾": 6410,
      "翿": 6411,
      "耀": 6412,
      "老": 6413,
      "考": 6414,
      "耄": 6415,
      "者": 6416,
      "耆": 6417,
      "耇": 6418,
      "耋": 6419,
      "而": 6420,
      "耍": 6421,
      "耎": 6422,
      "耐": 6423,
      "耑": 6424,
      "耒": 6425,
      "耔": 6426,
      "耕": 6427,
      "耖": 6428,
      "耗": 6429,
      "耘": 6430,
      "耙": 6431,
      "耛": 6432,
      "耜": 6433,
      "耝": 6434,
      "耞": 6435,
      "耤": 6436,
      "耦": 6437,
      "耨": 6438,
      "耰": 6439,
      "耳": 6440,
      "耵": 6441,
      "耶": 6442,
      "耸": 6443,
      "耻": 6444,
      "耽": 6445,
      "耿": 6446,
      "聂": 6447,
      "聃": 6448,
      "聆": 6449,
      "聊": 6450,
      "聋": 6451,
      "职": 6452,
      "聍": 6453,
      "聒": 6454,
      "聓": 6455,
      "联": 6456,
      "聘": 6457,
      "聚": 6458,
      "聛": 6459,
      "聣": 6460,
      "聩": 6461,
      "聪": 6462,
      "聱": 6463,
      "聻": 6464,
      "聿": 6465,
      "肃": 6466,
      "肄": 6467,
      "肆": 6468,
      "肇": 6469,
      "肉": 6470,
      "肋": 6471,
      "肌": 6472,
      "肏": 6473,
      "肓": 6474,
      "肖": 6475,
      "肘": 6476,
      "肚": 6477,
      "肜": 6478,
      "肝": 6479,
      "肠": 6480,
      "股": 6481,
      "肢": 6482,
      "肣": 6483,
      "肤": 6484,
      "肥": 6485,
      "肦": 6486,
      "肨": 6487,
      "肩": 6488,
      "肪": 6489,
      "肫": 6490,
      "肭": 6491,
      "肮": 6492,
      "肯": 6493,
      "肰": 6494,
      "肱": 6495,
      "育": 6496,
      "肴": 6497,
      "肸": 6498,
      "肺": 6499,
      "肽": 6500,
      "肾": 6501,
      "肿": 6502,
      "胀": 6503,
      "胁": 6504,
      "胃": 6505,
      "胄": 6506,
      "胆": 6507,
      "胊": 6508,
      "背": 6509,
      "胍": 6510,
      "胎": 6511,
      "胏": 6512,
      "胔": 6513,
      "胖": 6514,
      "胗": 6515,
      "胙": 6516,
      "胚": 6517,
      "胛": 6518,
      "胜": 6519,
      "胝": 6520,
      "胞": 6521,
      "胠": 6522,
      "胡": 6523,
      "胤": 6524,
      "胥": 6525,
      "胧": 6526,
      "胪": 6527,
      "胫": 6528,
      "胭": 6529,
      "胯": 6530,
      "胰": 6531,
      "胲": 6532,
      "胳": 6533,
      "胶": 6534,
      "胸": 6535,
      "胹": 6536,
      "胼": 6537,
      "能": 6538,
      "胾": 6539,
      "脁": 6540,
      "脂": 6541,
      "脆": 6542,
      "脉": 6543,
      "脊": 6544,
      "脍": 6545,
      "脏": 6546,
      "脐": 6547,
      "脑": 6548,
      "脓": 6549,
      "脔": 6550,
      "脕": 6551,
      "脚": 6552,
      "脝": 6553,
      "脞": 6554,
      "脡": 6555,
      "脢": 6556,
      "脤": 6557,
      "脩": 6558,
      "脬": 6559,
      "脯": 6560,
      "脰": 6561,
      "脱": 6562,
      "脸": 6563,
      "脽": 6564,
      "脾": 6565,
      "腂": 6566,
      "腄": 6567,
      "腆": 6568,
      "腇": 6569,
      "腊": 6570,
      "腋": 6571,
      "腌": 6572,
      "腐": 6573,
      "腑": 6574,
      "腒": 6575,
      "腓": 6576,
      "腔": 6577,
      "腕": 6578,
      "腠": 6579,
      "腥": 6580,
      "腨": 6581,
      "腩": 6582,
      "腪": 6583,
      "腭": 6584,
      "腮": 6585,
      "腯": 6586,
      "腰": 6587,
      "腱": 6588,
      "腲": 6589,
      "腴": 6590,
      "腶": 6591,
      "腷": 6592,
      "腹": 6593,
      "腻": 6594,
      "腼": 6595,
      "腽": 6596,
      "腾": 6597,
      "腿": 6598,
      "膀": 6599,
      "膂": 6600,
      "膇": 6601,
      "膈": 6602,
      "膊": 6603,
      "膋": 6604,
      "膎": 6605,
      "膏": 6606,
      "膑": 6607,
      "膘": 6608,
      "膛": 6609,
      "膜": 6610,
      "膝": 6611,
      "膞": 6612,
      "膡": 6613,
      "膢": 6614,
      "膧": 6615,
      "膨": 6616,
      "膮": 6617,
      "膰": 6618,
      "膳": 6619,
      "膴": 6620,
      "膺": 6621,
      "膻": 6622,
      "臀": 6623,
      "臁": 6624,
      "臂": 6625,
      "臃": 6626,
      "臄": 6627,
      "臆": 6628,
      "臈": 6629,
      "臊": 6630,
      "臐": 6631,
      "臑": 6632,
      "臒": 6633,
      "臕": 6634,
      "臛": 6635,
      "臜": 6636,
      "臞": 6637,
      "臡": 6638,
      "臣": 6639,
      "臤": 6640,
      "臧": 6641,
      "自": 6642,
      "臬": 6643,
      "臭": 6644,
      "臲": 6645,
      "至": 6646,
      "致": 6647,
      "臻": 6648,
      "臼": 6649,
      "臾": 6650,
      "舀": 6651,
      "舁": 6652,
      "舂": 6653,
      "舄": 6654,
      "舅": 6655,
      "舆": 6656,
      "舌": 6657,
      "舍": 6658,
      "舐": 6659,
      "舒": 6660,
      "舔": 6661,
      "舛": 6662,
      "舜": 6663,
      "舞": 6664,
      "舟": 6665,
      "舠": 6666,
      "舣": 6667,
      "舤": 6668,
      "舥": 6669,
      "航": 6670,
      "舫": 6671,
      "般": 6672,
      "舰": 6673,
      "舱": 6674,
      "舲": 6675,
      "舳": 6676,
      "舴": 6677,
      "舵": 6678,
      "舶": 6679,
      "舷": 6680,
      "舸": 6681,
      "船": 6682,
      "舺": 6683,
      "舻": 6684,
      "舼": 6685,
      "舽": 6686,
      "艂": 6687,
      "艄": 6688,
      "艅": 6689,
      "艇": 6690,
      "艋": 6691,
      "艎": 6692,
      "艐": 6693,
      "艑": 6694,
      "艒": 6695,
      "艓": 6696,
      "艔": 6697,
      "艕": 6698,
      "艖": 6699,
      "艗": 6700,
      "艘": 6701,
      "艚": 6702,
      "艛": 6703,
      "艟": 6704,
      "艧": 6705,
      "艨": 6706,
      "艬": 6707,
      "艭": 6708,
      "艮": 6709,
      "良": 6710,
      "艰": 6711,
      "色": 6712,
      "艳": 6713,
      "艵": 6714,
      "艹": 6715,
      "艺": 6716,
      "艼": 6717,
      "艾": 6718,
      "艿": 6719,
      "节": 6720,
      "芃": 6721,
      "芄": 6722,
      "芇": 6723,
      "芈": 6724,
      "芉": 6725,
      "芊": 6726,
      "芋": 6727,
      "芍": 6728,
      "芎": 6729,
      "芐": 6730,
      "芑": 6731,
      "芒": 6732,
      "芗": 6733,
      "芘": 6734,
      "芙": 6735,
      "芚": 6736,
      "芜": 6737,
      "芝": 6738,
      "芟": 6739,
      "芡": 6740,
      "芣": 6741,
      "芥": 6742,
      "芦": 6743,
      "芧": 6744,
      "芨": 6745,
      "芩": 6746,
      "芫": 6747,
      "芬": 6748,
      "芭": 6749,
      "芮": 6750,
      "芯": 6751,
      "芰": 6752,
      "花": 6753,
      "芳": 6754,
      "芷": 6755,
      "芸": 6756,
      "芹": 6757,
      "芼": 6758,
      "芽": 6759,
      "芾": 6760,
      "芿": 6761,
      "苁": 6762,
      "苂": 6763,
      "苃": 6764,
      "苇": 6765,
      "苈": 6766,
      "苋": 6767,
      "苌": 6768,
      "苍": 6769,
      "苎": 6770,
      "苏": 6771,
      "苐": 6772,
      "苑": 6773,
      "苒": 6774,
      "苓": 6775,
      "苔": 6776,
      "苕": 6777,
      "苗": 6778,
      "苘": 6779,
      "苙": 6780,
      "苛": 6781,
      "苜": 6782,
      "苞": 6783,
      "苟": 6784,
      "苡": 6785,
      "苢": 6786,
      "苣": 6787,
      "若": 6788,
      "苦": 6789,
      "苧": 6790,
      "苨": 6791,
      "苫": 6792,
      "苯": 6793,
      "英": 6794,
      "苴": 6795,
      "苶": 6796,
      "苷": 6797,
      "苹": 6798,
      "苻": 6799,
      "苾": 6800,
      "茀": 6801,
      "茁": 6802,
      "茂": 6803,
      "范": 6804,
      "茄": 6805,
      "茅": 6806,
      "茆": 6807,
      "茇": 6808,
      "茈": 6809,
      "茉": 6810,
      "茌": 6811,
      "茎": 6812,
      "茏": 6813,
      "茐": 6814,
      "茑": 6815,
      "茒": 6816,
      "茔": 6817,
      "茕": 6818,
      "茖": 6819,
      "茗": 6820,
      "茙": 6821,
      "茜": 6822,
      "茝": 6823,
      "茟": 6824,
      "茢": 6825,
      "茧": 6826,
      "茨": 6827,
      "茫": 6828,
      "茭": 6829,
      "茯": 6830,
      "茱": 6831,
      "茳": 6832,
      "茴": 6833,
      "茵": 6834,
      "茶": 6835,
      "茷": 6836,
      "茸": 6837,
      "茹": 6838,
      "茼": 6839,
      "荀": 6840,
      "荂": 6841,
      "荃": 6842,
      "荄": 6843,
      "荅": 6844,
      "荆": 6845,
      "荇": 6846,
      "荈": 6847,
      "草": 6848,
      "荍": 6849,
      "荏": 6850,
      "荐": 6851,
      "荑": 6852,
      "荒": 6853,
      "荓": 6854,
      "荔": 6855,
      "荖": 6856,
      "荗": 6857,
      "荙": 6858,
      "荚": 6859,
      "荛": 6860,
      "荜": 6861,
      "荞": 6862,
      "荟": 6863,
      "荠": 6864,
      "荡": 6865,
      "荣": 6866,
      "荤": 6867,
      "荥": 6868,
      "荦": 6869,
      "荧": 6870,
      "荨": 6871,
      "荩": 6872,
      "荪": 6873,
      "荫": 6874,
      "荬": 6875,
      "荭": 6876,
      "药": 6877,
      "荷": 6878,
      "荸": 6879,
      "荻": 6880,
      "荼": 6881,
      "荽": 6882,
      "荿": 6883,
      "莂": 6884,
      "莃": 6885,
      "莅": 6886,
      "莆": 6887,
      "莉": 6888,
      "莋": 6889,
      "莍": 6890,
      "莎": 6891,
      "莒": 6892,
      "莓": 6893,
      "莘": 6894,
      "莙": 6895,
      "莚": 6896,
      "莛": 6897,
      "莝": 6898,
      "莞": 6899,
      "莟": 6900,
      "莠": 6901,
      "莤": 6902,
      "莦": 6903,
      "莨": 6904,
      "莩": 6905,
      "莪": 6906,
      "莫": 6907,
      "莬": 6908,
      "莱": 6909,
      "莲": 6910,
      "莳": 6911,
      "莴": 6912,
      "莶": 6913,
      "获": 6914,
      "莸": 6915,
      "莹": 6916,
      "莺": 6917,
      "莼": 6918,
      "莽": 6919,
      "菀": 6920,
      "菁": 6921,
      "菂": 6922,
      "菃": 6923,
      "菅": 6924,
      "菆": 6925,
      "菇": 6926,
      "菉": 6927,
      "菊": 6928,
      "菋": 6929,
      "菌": 6930,
      "菑": 6931,
      "菔": 6932,
      "菖": 6933,
      "菘": 6934,
      "菜": 6935,
      "菟": 6936,
      "菠": 6937,
      "菡": 6938,
      "菤": 6939,
      "菩": 6940,
      "菭": 6941,
      "菰": 6942,
      "菱": 6943,
      "菲": 6944,
      "菵": 6945,
      "菶": 6946,
      "菹": 6947,
      "菻": 6948,
      "菼": 6949,
      "菽": 6950,
      "萁": 6951,
      "萃": 6952,
      "萄": 6953,
      "萋": 6954,
      "萌": 6955,
      "萍": 6956,
      "萎": 6957,
      "萏": 6958,
      "萐": 6959,
      "萑": 6960,
      "萒": 6961,
      "萓": 6962,
      "萚": 6963,
      "萝": 6964,
      "萟": 6965,
      "萤": 6966,
      "营": 6967,
      "萦": 6968,
      "萧": 6969,
      "萨": 6970,
      "萩": 6971,
      "萯": 6972,
      "萱": 6973,
      "萸": 6974,
      "萹": 6975,
      "萼": 6976,
      "落": 6977,
      "葄": 6978,
      "葆": 6979,
      "葇": 6980,
      "葈": 6981,
      "葐": 6982,
      "葑": 6983,
      "葖": 6984,
      "著": 6985,
      "葚": 6986,
      "葛": 6987,
      "葟": 6988,
      "葡": 6989,
      "董": 6990,
      "葩": 6991,
      "葫": 6992,
      "葬": 6993,
      "葭": 6994,
      "葱": 6995,
      "葳": 6996,
      "葴": 6997,
      "葵": 6998,
      "葶": 6999,
      "葹": 7000,
      "葺": 7001,
      "葼": 7002,
      "葽": 7003,
      "蒀": 7004,
      "蒂": 7005,
      "蒄": 7006,
      "蒇": 7007,
      "蒉": 7008,
      "蒋": 7009,
      "蒌": 7010,
      "蒐": 7011,
      "蒙": 7012,
      "蒜": 7013,
      "蒟": 7014,
      "蒡": 7015,
      "蒢": 7016,
      "蒥": 7017,
      "蒦": 7018,
      "蒪": 7019,
      "蒯": 7020,
      "蒱": 7021,
      "蒲": 7022,
      "蒳": 7023,
      "蒴": 7024,
      "蒶": 7025,
      "蒸": 7026,
      "蒹": 7027,
      "蒺": 7028,
      "蒻": 7029,
      "蒿": 7030,
      "蓁": 7031,
      "蓂": 7032,
      "蓄": 7033,
      "蓉": 7034,
      "蓊": 7035,
      "蓍": 7036,
      "蓏": 7037,
      "蓐": 7038,
      "蓑": 7039,
      "蓓": 7040,
      "蓖": 7041,
      "蓘": 7042,
      "蓛": 7043,
      "蓝": 7044,
      "蓟": 7045,
      "蓠": 7046,
      "蓢": 7047,
      "蓣": 7048,
      "蓦": 7049,
      "蓧": 7050,
      "蓨": 7051,
      "蓪": 7052,
      "蓬": 7053,
      "蓰": 7054,
      "蓱": 7055,
      "蓷": 7056,
      "蓹": 7057,
      "蓺": 7058,
      "蓻": 7059,
      "蓼": 7060,
      "蓿": 7061,
      "蔀": 7062,
      "蔂": 7063,
      "蔌": 7064,
      "蔍": 7065,
      "蔑": 7066,
      "蔓": 7067,
      "蔗": 7068,
      "蔘": 7069,
      "蔚": 7070,
      "蔜": 7071,
      "蔟": 7072,
      "蔡": 7073,
      "蔤": 7074,
      "蔪": 7075,
      "蔫": 7076,
      "蔬": 7077,
      "蔯": 7078,
      "蔷": 7079,
      "蔹": 7080,
      "蔺": 7081,
      "蔻": 7082,
      "蔼": 7083,
      "蔽": 7084,
      "蔿": 7085,
      "蕂": 7086,
      "蕃": 7087,
      "蕈": 7088,
      "蕉": 7089,
      "蕊": 7090,
      "蕖": 7091,
      "蕙": 7092,
      "蕝": 7093,
      "蕞": 7094,
      "蕟": 7095,
      "蕡": 7096,
      "蕣": 7097,
      "蕤": 7098,
      "蕧": 7099,
      "蕨": 7100,
      "蕲": 7101,
      "蕳": 7102,
      "蕴": 7103,
      "蕸": 7104,
      "蕹": 7105,
      "蕺": 7106,
      "蕻": 7107,
      "蕾": 7108,
      "薁": 7109,
      "薂": 7110,
      "薄": 7111,
      "薅": 7112,
      "薆": 7113,
      "薇": 7114,
      "薋": 7115,
      "薍": 7116,
      "薏": 7117,
      "薐": 7118,
      "薕": 7119,
      "薖": 7120,
      "薙": 7121,
      "薚": 7122,
      "薛": 7123,
      "薜": 7124,
      "薝": 7125,
      "薤": 7126,
      "薥": 7127,
      "薧": 7128,
      "薨": 7129,
      "薪": 7130,
      "薮": 7131,
      "薯": 7132,
      "薰": 7133,
      "薶": 7134,
      "薷": 7135,
      "薸": 7136,
      "薹": 7137,
      "薾": 7138,
      "薿": 7139,
      "藁": 7140,
      "藇": 7141,
      "藉": 7142,
      "藋": 7143,
      "藏": 7144,
      "藐": 7145,
      "藑": 7146,
      "藓": 7147,
      "藕": 7148,
      "藖": 7149,
      "藘": 7150,
      "藙": 7151,
      "藚": 7152,
      "藜": 7153,
      "藞": 7154,
      "藟": 7155,
      "藠": 7156,
      "藤": 7157,
      "藦": 7158,
      "藨": 7159,
      "藩": 7160,
      "藭": 7161,
      "藷": 7162,
      "藻": 7163,
      "藾": 7164,
      "藿": 7165,
      "蘁": 7166,
      "蘅": 7167,
      "蘉": 7168,
      "蘋": 7169,
      "蘑": 7170,
      "蘖": 7171,
      "蘘": 7172,
      "蘙": 7173,
      "蘠": 7174,
      "蘤": 7175,
      "蘦": 7176,
      "蘧": 7177,
      "蘩": 7178,
      "蘸": 7179,
      "蘹": 7180,
      "蘼": 7181,
      "虉": 7182,
      "虋": 7183,
      "虎": 7184,
      "虏": 7185,
      "虐": 7186,
      "虑": 7187,
      "虒": 7188,
      "虓": 7189,
      "虔": 7190,
      "虖": 7191,
      "虙": 7192,
      "虚": 7193,
      "虞": 7194,
      "虡": 7195,
      "虢": 7196,
      "虥": 7197,
      "虦": 7198,
      "虨": 7199,
      "虩": 7200,
      "虫": 7201,
      "虬": 7202,
      "虮": 7203,
      "虱": 7204,
      "虹": 7205,
      "虺": 7206,
      "虻": 7207,
      "虽": 7208,
      "虾": 7209,
      "虿": 7210,
      "蚀": 7211,
      "蚁": 7212,
      "蚂": 7213,
      "蚃": 7214,
      "蚆": 7215,
      "蚊": 7216,
      "蚋": 7217,
      "蚌": 7218,
      "蚍": 7219,
      "蚑": 7220,
      "蚓": 7221,
      "蚕": 7222,
      "蚖": 7223,
      "蚛": 7224,
      "蚝": 7225,
      "蚣": 7226,
      "蚤": 7227,
      "蚧": 7228,
      "蚨": 7229,
      "蚩": 7230,
      "蚪": 7231,
      "蚬": 7232,
      "蚯": 7233,
      "蚰": 7234,
      "蚱": 7235,
      "蚳": 7236,
      "蚴": 7237,
      "蚵": 7238,
      "蚶": 7239,
      "蚷": 7240,
      "蚹": 7241,
      "蚺": 7242,
      "蚻": 7243,
      "蚽": 7244,
      "蚾": 7245,
      "蚿": 7246,
      "蛀": 7247,
      "蛁": 7248,
      "蛃": 7249,
      "蛄": 7250,
      "蛆": 7251,
      "蛇": 7252,
      "蛉": 7253,
      "蛊": 7254,
      "蛋": 7255,
      "蛎": 7256,
      "蛏": 7257,
      "蛐": 7258,
      "蛑": 7259,
      "蛘": 7260,
      "蛙": 7261,
      "蛚": 7262,
      "蛛": 7263,
      "蛜": 7264,
      "蛟": 7265,
      "蛣": 7266,
      "蛤": 7267,
      "蛦": 7268,
      "蛩": 7269,
      "蛬": 7270,
      "蛭": 7271,
      "蛮": 7272,
      "蛰": 7273,
      "蛱": 7274,
      "蛲": 7275,
      "蛳": 7276,
      "蛴": 7277,
      "蛸": 7278,
      "蛹": 7279,
      "蛼": 7280,
      "蛾": 7281,
      "蜀": 7282,
      "蜁": 7283,
      "蜂": 7284,
      "蜃": 7285,
      "蜇": 7286,
      "蜈": 7287,
      "蜉": 7288,
      "蜊": 7289,
      "蜍": 7290,
      "蜎": 7291,
      "蜑": 7292,
      "蜒": 7293,
      "蜓": 7294,
      "蜕": 7295,
      "蜗": 7296,
      "蜘": 7297,
      "蜚": 7298,
      "蜛": 7299,
      "蜜": 7300,
      "蜞": 7301,
      "蜡": 7302,
      "蜢": 7303,
      "蜣": 7304,
      "蜥": 7305,
      "蜦": 7306,
      "蜧": 7307,
      "蜩": 7308,
      "蜫": 7309,
      "蜬": 7310,
      "蜮": 7311,
      "蜰": 7312,
      "蜴": 7313,
      "蜷": 7314,
      "蜹": 7315,
      "蜺": 7316,
      "蜻": 7317,
      "蜼": 7318,
      "蜽": 7319,
      "蜾": 7320,
      "蜿": 7321,
      "蝀": 7322,
      "蝂": 7323,
      "蝄": 7324,
      "蝇": 7325,
      "蝈": 7326,
      "蝉": 7327,
      "蝌": 7328,
      "蝍": 7329,
      "蝎": 7330,
      "蝐": 7331,
      "蝑": 7332,
      "蝓": 7333,
      "蝗": 7334,
      "蝘": 7335,
      "蝙": 7336,
      "蝛": 7337,
      "蝜": 7338,
      "蝝": 7339,
      "蝠": 7340,
      "蝣": 7341,
      "蝤": 7342,
      "蝥": 7343,
      "蝪": 7344,
      "蝫": 7345,
      "蝮": 7346,
      "蝳": 7347,
      "蝴": 7348,
      "蝶": 7349,
      "蝹": 7350,
      "蝻": 7351,
      "蝼": 7352,
      "螀": 7353,
      "螂": 7354,
      "螃": 7355,
      "螇": 7356,
      "螉": 7357,
      "融": 7358,
      "螓": 7359,
      "螖": 7360,
      "螗": 7361,
      "螟": 7362,
      "螠": 7363,
      "螣": 7364,
      "螨": 7365,
      "螫": 7366,
      "螬": 7367,
      "螭": 7368,
      "螮": 7369,
      "螯": 7370,
      "螳": 7371,
      "螷": 7372,
      "螺": 7373,
      "螽": 7374,
      "螾": 7375,
      "蟀": 7376,
      "蟂": 7377,
      "蟆": 7378,
      "蟉": 7379,
      "蟊": 7380,
      "蟋": 7381,
      "蟏": 7382,
      "蟑": 7383,
      "蟒": 7384,
      "蟙": 7385,
      "蟛": 7386,
      "蟜": 7387,
      "蟟": 7388,
      "蟠": 7389,
      "蟢": 7390,
      "蟥": 7391,
      "蟨": 7392,
      "蟪": 7393,
      "蟫": 7394,
      "蟭": 7395,
      "蟮": 7396,
      "蟳": 7397,
      "蟹": 7398,
      "蟺": 7399,
      "蟾": 7400,
      "蠀": 7401,
      "蠂": 7402,
      "蠃": 7403,
      "蠉": 7404,
      "蠋": 7405,
      "蠍": 7406,
      "蠓": 7407,
      "蠕": 7408,
      "蠖": 7409,
      "蠙": 7410,
      "蠛": 7411,
      "蠜": 7412,
      "蠝": 7413,
      "蠠": 7414,
      "蠡": 7415,
      "蠢": 7416,
      "蠮": 7417,
      "蠲": 7418,
      "蠵": 7419,
      "蠹": 7420,
      "蠼": 7421,
      "血": 7422,
      "衁": 7423,
      "衃": 7424,
      "衄": 7425,
      "衅": 7426,
      "衋": 7427,
      "行": 7428,
      "衍": 7429,
      "衎": 7430,
      "衒": 7431,
      "衔": 7432,
      "衕": 7433,
      "街": 7434,
      "衙": 7435,
      "衡": 7436,
      "衢": 7437,
      "衣": 7438,
      "补": 7439,
      "表": 7440,
      "衩": 7441,
      "衫": 7442,
      "衬": 7443,
      "衭": 7444,
      "衮": 7445,
      "衰": 7446,
      "衱": 7447,
      "衲": 7448,
      "衵": 7449,
      "衶": 7450,
      "衷": 7451,
      "衽": 7452,
      "衾": 7453,
      "衿": 7454,
      "袁": 7455,
      "袂": 7456,
      "袄": 7457,
      "袅": 7458,
      "袆": 7459,
      "袈": 7460,
      "袋": 7461,
      "袍": 7462,
      "袐": 7463,
      "袒": 7464,
      "袓": 7465,
      "袖": 7466,
      "袗": 7467,
      "袛": 7468,
      "袜": 7469,
      "袝": 7470,
      "袢": 7471,
      "袤": 7472,
      "袥": 7473,
      "袨": 7474,
      "袪": 7475,
      "被": 7476,
      "袭": 7477,
      "袮": 7478,
      "袯": 7479,
      "袱": 7480,
      "袷": 7481,
      "袽": 7482,
      "袿": 7483,
      "裀": 7484,
      "裁": 7485,
      "裂": 7486,
      "装": 7487,
      "裆": 7488,
      "裈": 7489,
      "裉": 7490,
      "裋": 7491,
      "裌": 7492,
      "裍": 7493,
      "裎": 7494,
      "裒": 7495,
      "裓": 7496,
      "裔": 7497,
      "裕": 7498,
      "裘": 7499,
      "裙": 7500,
      "裛": 7501,
      "裟": 7502,
      "裣": 7503,
      "裤": 7504,
      "裥": 7505,
      "裨": 7506,
      "裬": 7507,
      "裯": 7508,
      "裰": 7509,
      "裱": 7510,
      "裲": 7511,
      "裳": 7512,
      "裴": 7513,
      "裷": 7514,
      "裸": 7515,
      "裹": 7516,
      "裻": 7517,
      "裼": 7518,
      "裾": 7519,
      "褂": 7520,
      "褆": 7521,
      "褉": 7522,
      "褊": 7523,
      "褋": 7524,
      "褐": 7525,
      "褒": 7526,
      "褓": 7527,
      "褕": 7528,
      "褚": 7529,
      "褛": 7530,
      "褠": 7531,
      "褡": 7532,
      "褢": 7533,
      "褣": 7534,
      "褥": 7535,
      "褦": 7536,
      "褧": 7537,
      "褪": 7538,
      "褫": 7539,
      "褰": 7540,
      "褴": 7541,
      "褶": 7542,
      "褷": 7543,
      "褺": 7544,
      "褼": 7545,
      "襁": 7546,
      "襂": 7547,
      "襄": 7548,
      "襆": 7549,
      "襋": 7550,
      "襌": 7551,
      "襓": 7552,
      "襔": 7553,
      "襕": 7554,
      "襘": 7555,
      "襚": 7556,
      "襛": 7557,
      "襜": 7558,
      "襞": 7559,
      "襟": 7560,
      "襡": 7561,
      "襣": 7562,
      "襦": 7563,
      "襧": 7564,
      "襫": 7565,
      "襭": 7566,
      "襮": 7567,
      "襳": 7568,
      "襶": 7569,
      "襹": 7570,
      "襺": 7571,
      "襻": 7572,
      "襼": 7573,
      "襽": 7574,
      "西": 7575,
      "要": 7576,
      "覃": 7577,
      "覆": 7578,
      "覈": 7579,
      "覕": 7580,
      "覤": 7581,
      "覼": 7582,
      "见": 7583,
      "观": 7584,
      "规": 7585,
      "觅": 7586,
      "视": 7587,
      "觇": 7588,
      "览": 7589,
      "觉": 7590,
      "觊": 7591,
      "觋": 7592,
      "觌": 7593,
      "觍": 7594,
      "觎": 7595,
      "觏": 7596,
      "觐": 7597,
      "觑": 7598,
      "角": 7599,
      "觓": 7600,
      "觔": 7601,
      "觕": 7602,
      "觖": 7603,
      "觚": 7604,
      "觜": 7605,
      "觞": 7606,
      "觡": 7607,
      "解": 7608,
      "觥": 7609,
      "触": 7610,
      "觫": 7611,
      "觭": 7612,
      "觯": 7613,
      "觱": 7614,
      "觳": 7615,
      "觺": 7616,
      "觻": 7617,
      "觿": 7618,
      "言": 7619,
      "訇": 7620,
      "訉": 7621,
      "訑": 7622,
      "訚": 7623,
      "訹": 7624,
      "訾": 7625,
      "詀": 7626,
      "詄": 7627,
      "詅": 7628,
      "詈": 7629,
      "詑": 7630,
      "詟": 7631,
      "詨": 7632,
      "詶": 7633,
      "詹": 7634,
      "誇": 7635,
      "誉": 7636,
      "誊": 7637,
      "誓": 7638,
      "誗": 7639,
      "誙": 7640,
      "誵": 7641,
      "誷": 7642,
      "諀": 7643,
      "諓": 7644,
      "諕": 7645,
      "諟": 7646,
      "諠": 7647,
      "諲": 7648,
      "諴": 7649,
      "諵": 7650,
      "謇": 7651,
      "謈": 7652,
      "謏": 7653,
      "謟": 7654,
      "謥": 7655,
      "謦": 7656,
      "謷": 7657,
      "謻": 7658,
      "謼": 7659,
      "譀": 7660,
      "證": 7661,
      "譊": 7662,
      "譣": 7663,
      "警": 7664,
      "譩": 7665,
      "譬": 7666,
      "讘": 7667,
      "讟": 7668,
      "讠": 7669,
      "计": 7670,
      "订": 7671,
      "讣": 7672,
      "认": 7673,
      "讥": 7674,
      "讦": 7675,
      "讧": 7676,
      "讨": 7677,
      "让": 7678,
      "讪": 7679,
      "讫": 7680,
      "训": 7681,
      "议": 7682,
      "讯": 7683,
      "记": 7684,
      "讱": 7685,
      "讲": 7686,
      "讳": 7687,
      "讴": 7688,
      "讵": 7689,
      "讶": 7690,
      "讷": 7691,
      "许": 7692,
      "讹": 7693,
      "论": 7694,
      "讻": 7695,
      "讼": 7696,
      "讽": 7697,
      "设": 7698,
      "访": 7699,
      "诀": 7700,
      "证": 7701,
      "诂": 7702,
      "诃": 7703,
      "评": 7704,
      "诅": 7705,
      "识": 7706,
      "诇": 7707,
      "诈": 7708,
      "诉": 7709,
      "诊": 7710,
      "诋": 7711,
      "诌": 7712,
      "词": 7713,
      "诎": 7714,
      "诏": 7715,
      "诐": 7716,
      "译": 7717,
      "诒": 7718,
      "诓": 7719,
      "诔": 7720,
      "试": 7721,
      "诖": 7722,
      "诗": 7723,
      "诘": 7724,
      "诙": 7725,
      "诚": 7726,
      "诛": 7727,
      "诜": 7728,
      "话": 7729,
      "诞": 7730,
      "诟": 7731,
      "诠": 7732,
      "诡": 7733,
      "询": 7734,
      "诣": 7735,
      "诤": 7736,
      "该": 7737,
      "详": 7738,
      "诧": 7739,
      "诨": 7740,
      "诩": 7741,
      "诪": 7742,
      "诫": 7743,
      "诬": 7744,
      "语": 7745,
      "诮": 7746,
      "误": 7747,
      "诰": 7748,
      "诱": 7749,
      "诲": 7750,
      "诳": 7751,
      "说": 7752,
      "诵": 7753,
      "请": 7754,
      "诸": 7755,
      "诹": 7756,
      "诺": 7757,
      "读": 7758,
      "诼": 7759,
      "诽": 7760,
      "课": 7761,
      "诿": 7762,
      "谀": 7763,
      "谁": 7764,
      "谂": 7765,
      "调": 7766,
      "谄": 7767,
      "谅": 7768,
      "谆": 7769,
      "谇": 7770,
      "谈": 7771,
      "谊": 7772,
      "谋": 7773,
      "谌": 7774,
      "谍": 7775,
      "谎": 7776,
      "谏": 7777,
      "谐": 7778,
      "谑": 7779,
      "谒": 7780,
      "谓": 7781,
      "谔": 7782,
      "谕": 7783,
      "谖": 7784,
      "谗": 7785,
      "谙": 7786,
      "谚": 7787,
      "谛": 7788,
      "谜": 7789,
      "谞": 7790,
      "谟": 7791,
      "谠": 7792,
      "谡": 7793,
      "谢": 7794,
      "谣": 7795,
      "谤": 7796,
      "谥": 7797,
      "谦": 7798,
      "谧": 7799,
      "谨": 7800,
      "谩": 7801,
      "谪": 7802,
      "谫": 7803,
      "谬": 7804,
      "谭": 7805,
      "谮": 7806,
      "谯": 7807,
      "谰": 7808,
      "谱": 7809,
      "谲": 7810,
      "谳": 7811,
      "谴": 7812,
      "谵": 7813,
      "谶": 7814,
      "谷": 7815,
      "谹": 7816,
      "谺": 7817,
      "谼": 7818,
      "谽": 7819,
      "豁": 7820,
      "豅": 7821,
      "豆": 7822,
      "豇": 7823,
      "豉": 7824,
      "豋": 7825,
      "豌": 7826,
      "豏": 7827,
      "豕": 7828,
      "豗": 7829,
      "豚": 7830,
      "豜": 7831,
      "豝": 7832,
      "象": 7833,
      "豢": 7834,
      "豨": 7835,
      "豩": 7836,
      "豪": 7837,
      "豫": 7838,
      "豭": 7839,
      "豮": 7840,
      "豰": 7841,
      "豳": 7842,
      "豵": 7843,
      "豸": 7844,
      "豹": 7845,
      "豺": 7846,
      "豻": 7847,
      "貁": 7848,
      "貂": 7849,
      "貅": 7850,
      "貆": 7851,
      "貈": 7852,
      "貉": 7853,
      "貊": 7854,
      "貌": 7855,
      "貐": 7856,
      "貔": 7857,
      "貘": 7858,
      "貙": 7859,
      "貤": 7860,
      "賨": 7861,
      "贉": 7862,
      "贌": 7863,
      "贙": 7864,
      "贝": 7865,
      "贞": 7866,
      "负": 7867,
      "贡": 7868,
      "财": 7869,
      "责": 7870,
      "贤": 7871,
      "败": 7872,
      "账": 7873,
      "货": 7874,
      "质": 7875,
      "贩": 7876,
      "贪": 7877,
      "贫": 7878,
      "贬": 7879,
      "购": 7880,
      "贮": 7881,
      "贯": 7882,
      "贰": 7883,
      "贱": 7884,
      "贲": 7885,
      "贳": 7886,
      "贴": 7887,
      "贵": 7888,
      "贶": 7889,
      "贷": 7890,
      "贸": 7891,
      "费": 7892,
      "贺": 7893,
      "贻": 7894,
      "贼": 7895,
      "贽": 7896,
      "贾": 7897,
      "贿": 7898,
      "赀": 7899,
      "赁": 7900,
      "赂": 7901,
      "赃": 7902,
      "资": 7903,
      "赅": 7904,
      "赆": 7905,
      "赇": 7906,
      "赈": 7907,
      "赉": 7908,
      "赊": 7909,
      "赋": 7910,
      "赌": 7911,
      "赍": 7912,
      "赎": 7913,
      "赏": 7914,
      "赐": 7915,
      "赑": 7916,
      "赒": 7917,
      "赓": 7918,
      "赔": 7919,
      "赕": 7920,
      "赖": 7921,
      "赗": 7922,
      "赘": 7923,
      "赙": 7924,
      "赚": 7925,
      "赛": 7926,
      "赜": 7927,
      "赝": 7928,
      "赞": 7929,
      "赟": 7930,
      "赠": 7931,
      "赡": 7932,
      "赢": 7933,
      "赣": 7934,
      "赤": 7935,
      "赦": 7936,
      "赧": 7937,
      "赩": 7938,
      "赪": 7939,
      "赫": 7940,
      "赭": 7941,
      "走": 7942,
      "赳": 7943,
      "赴": 7944,
      "赵": 7945,
      "赶": 7946,
      "起": 7947,
      "趁": 7948,
      "趄": 7949,
      "超": 7950,
      "越": 7951,
      "趋": 7952,
      "趍": 7953,
      "趎": 7954,
      "趐": 7955,
      "趑": 7956,
      "趖": 7957,
      "趗": 7958,
      "趟": 7959,
      "趠": 7960,
      "趢": 7961,
      "趣": 7962,
      "趫": 7963,
      "趯": 7964,
      "趱": 7965,
      "足": 7966,
      "趵": 7967,
      "趸": 7968,
      "趹": 7969,
      "趺": 7970,
      "趼": 7971,
      "趾": 7972,
      "趿": 7973,
      "跁": 7974,
      "跂": 7975,
      "跃": 7976,
      "跄": 7977,
      "跇": 7978,
      "跋": 7979,
      "跌": 7980,
      "跎": 7981,
      "跏": 7982,
      "跑": 7983,
      "跒": 7984,
      "跕": 7985,
      "跗": 7986,
      "跙": 7987,
      "跚": 7988,
      "跛": 7989,
      "距": 7990,
      "跞": 7991,
      "跟": 7992,
      "跣": 7993,
      "跤": 7994,
      "跦": 7995,
      "跧": 7996,
      "跨": 7997,
      "跪": 7998,
      "跫": 7999,
      "跬": 8000,
      "路": 8001,
      "跰": 8002,
      "跱": 8003,
      "跲": 8004,
      "跳": 8005,
      "践": 8006,
      "跶": 8007,
      "跷": 8008,
      "跸": 8009,
      "跹": 8010,
      "跺": 8011,
      "跻": 8012,
      "跽": 8013,
      "踆": 8014,
      "踉": 8015,
      "踊": 8016,
      "踌": 8017,
      "踏": 8018,
      "踒": 8019,
      "踔": 8020,
      "踖": 8021,
      "踝": 8022,
      "踞": 8023,
      "踟": 8024,
      "踠": 8025,
      "踢": 8026,
      "踣": 8027,
      "踤": 8028,
      "踦": 8029,
      "踧": 8030,
      "踩": 8031,
      "踪": 8032,
      "踬": 8033,
      "踭": 8034,
      "踯": 8035,
      "踰": 8036,
      "踱": 8037,
      "踵": 8038,
      "踶": 8039,
      "踷": 8040,
      "踸": 8041,
      "踹": 8042,
      "踼": 8043,
      "踽": 8044,
      "蹀": 8045,
      "蹁": 8046,
      "蹂": 8047,
      "蹃": 8048,
      "蹄": 8049,
      "蹇": 8050,
      "蹈": 8051,
      "蹉": 8052,
      "蹊": 8053,
      "蹋": 8054,
      "蹍": 8055,
      "蹐": 8056,
      "蹑": 8057,
      "蹒": 8058,
      "蹙": 8059,
      "蹚": 8060,
      "蹛": 8061,
      "蹜": 8062,
      "蹝": 8063,
      "蹠": 8064,
      "蹡": 8065,
      "蹢": 8066,
      "蹦": 8067,
      "蹩": 8068,
      "蹬": 8069,
      "蹭": 8070,
      "蹯": 8071,
      "蹰": 8072,
      "蹱": 8073,
      "蹲": 8074,
      "蹴": 8075,
      "蹶": 8076,
      "蹻": 8077,
      "蹼": 8078,
      "蹽": 8079,
      "躁": 8080,
      "躄": 8081,
      "躅": 8082,
      "躇": 8083,
      "躏": 8084,
      "躐": 8085,
      "躔": 8086,
      "躘": 8087,
      "躞": 8088,
      "躠": 8089,
      "躤": 8090,
      "躧": 8091,
      "躩": 8092,
      "身": 8093,
      "躬": 8094,
      "躯": 8095,
      "躲": 8096,
      "躺": 8097,
      "軏": 8098,
      "軓": 8099,
      "軘": 8100,
      "軥": 8101,
      "軨": 8102,
      "軷": 8103,
      "軿": 8104,
      "輀": 8105,
      "輖": 8106,
      "輗": 8107,
      "輠": 8108,
      "輣": 8109,
      "輤": 8110,
      "輧": 8111,
      "輮": 8112,
      "輴": 8113,
      "輶": 8114,
      "輷": 8115,
      "輹": 8116,
      "轇": 8117,
      "轊": 8118,
      "轑": 8119,
      "轓": 8120,
      "轕": 8121,
      "轖": 8122,
      "轗": 8123,
      "轘": 8124,
      "轙": 8125,
      "轜": 8126,
      "轞": 8127,
      "轠": 8128,
      "轣": 8129,
      "轥": 8130,
      "车": 8131,
      "轧": 8132,
      "轨": 8133,
      "轩": 8134,
      "轪": 8135,
      "轫": 8136,
      "转": 8137,
      "轭": 8138,
      "轮": 8139,
      "软": 8140,
      "轰": 8141,
      "轲": 8142,
      "轳": 8143,
      "轴": 8144,
      "轵": 8145,
      "轶": 8146,
      "轸": 8147,
      "轹": 8148,
      "轺": 8149,
      "轻": 8150,
      "轼": 8151,
      "载": 8152,
      "轾": 8153,
      "轿": 8154,
      "辀": 8155,
      "辂": 8156,
      "较": 8157,
      "辄": 8158,
      "辅": 8159,
      "辆": 8160,
      "辇": 8161,
      "辈": 8162,
      "辉": 8163,
      "辊": 8164,
      "辋": 8165,
      "辌": 8166,
      "辍": 8167,
      "辎": 8168,
      "辏": 8169,
      "辐": 8170,
      "辑": 8171,
      "辒": 8172,
      "输": 8173,
      "辔": 8174,
      "辕": 8175,
      "辖": 8176,
      "辗": 8177,
      "辘": 8178,
      "辙": 8179,
      "辚": 8180,
      "辛": 8181,
      "辜": 8182,
      "辞": 8183,
      "辟": 8184,
      "辣": 8185,
      "辥": 8186,
      "辨": 8187,
      "辩": 8188,
      "辫": 8189,
      "辰": 8190,
      "辱": 8191,
      "边": 8192,
      "辽": 8193,
      "达": 8194,
      "迁": 8195,
      "迂": 8196,
      "迄": 8197,
      "迅": 8198,
      "过": 8199,
      "迈": 8200,
      "迍": 8201,
      "迎": 8202,
      "运": 8203,
      "近": 8204,
      "迒": 8205,
      "迓": 8206,
      "返": 8207,
      "迕": 8208,
      "还": 8209,
      "这": 8210,
      "进": 8211,
      "远": 8212,
      "违": 8213,
      "连": 8214,
      "迟": 8215,
      "迢": 8216,
      "迤": 8217,
      "迥": 8218,
      "迦": 8219,
      "迨": 8220,
      "迩": 8221,
      "迪": 8222,
      "迫": 8223,
      "迭": 8224,
      "迮": 8225,
      "述": 8226,
      "迷": 8227,
      "迸": 8228,
      "迹": 8229,
      "追": 8230,
      "迾": 8231,
      "退": 8232,
      "送": 8233,
      "适": 8234,
      "逃": 8235,
      "逄": 8236,
      "逅": 8237,
      "逆": 8238,
      "选": 8239,
      "逊": 8240,
      "逋": 8241,
      "逌": 8242,
      "逍": 8243,
      "透": 8244,
      "逐": 8245,
      "逑": 8246,
      "递": 8247,
      "途": 8248,
      "逖": 8249,
      "逗": 8250,
      "通": 8251,
      "逛": 8252,
      "逝": 8253,
      "逞": 8254,
      "速": 8255,
      "造": 8256,
      "逡": 8257,
      "逢": 8258,
      "逤": 8259,
      "逦": 8260,
      "逭": 8261,
      "逮": 8262,
      "逯": 8263,
      "逴": 8264,
      "逵": 8265,
      "逶": 8266,
      "逸": 8267,
      "逻": 8268,
      "逼": 8269,
      "逾": 8270,
      "逿": 8271,
      "遁": 8272,
      "遂": 8273,
      "遄": 8274,
      "遇": 8275,
      "遌": 8276,
      "遍": 8277,
      "遏": 8278,
      "遐": 8279,
      "遑": 8280,
      "遒": 8281,
      "道": 8282,
      "遗": 8283,
      "遘": 8284,
      "遛": 8285,
      "遝": 8286,
      "遢": 8287,
      "遣": 8288,
      "遥": 8289,
      "遨": 8290,
      "遫": 8291,
      "遭": 8292,
      "遮": 8293,
      "遰": 8294,
      "遴": 8295,
      "遵": 8296,
      "遹": 8297,
      "遽": 8298,
      "避": 8299,
      "邀": 8300,
      "邂": 8301,
      "邃": 8302,
      "邅": 8303,
      "邈": 8304,
      "邋": 8305,
      "邑": 8306,
      "邓": 8307,
      "邕": 8308,
      "邗": 8309,
      "邙": 8310,
      "邛": 8311,
      "邜": 8312,
      "邝": 8313,
      "邠": 8314,
      "邡": 8315,
      "邢": 8316,
      "那": 8317,
      "邦": 8318,
      "邪": 8319,
      "邬": 8320,
      "邭": 8321,
      "邮": 8322,
      "邯": 8323,
      "邰": 8324,
      "邱": 8325,
      "邲": 8326,
      "邳": 8327,
      "邴": 8328,
      "邵": 8329,
      "邶": 8330,
      "邸": 8331,
      "邹": 8332,
      "邺": 8333,
      "邻": 8334,
      "邽": 8335,
      "邾": 8336,
      "郁": 8337,
      "郅": 8338,
      "郇": 8339,
      "郈": 8340,
      "郊": 8341,
      "郋": 8342,
      "郎": 8343,
      "郏": 8344,
      "郐": 8345,
      "郑": 8346,
      "郓": 8347,
      "郕": 8348,
      "郗": 8349,
      "郘": 8350,
      "郙": 8351,
      "郛": 8352,
      "郜": 8353,
      "郝": 8354,
      "郡": 8355,
      "郢": 8356,
      "郤": 8357,
      "郦": 8358,
      "郧": 8359,
      "部": 8360,
      "郩": 8361,
      "郪": 8362,
      "郫": 8363,
      "郭": 8364,
      "郯": 8365,
      "郱": 8366,
      "郲": 8367,
      "郴": 8368,
      "郸": 8369,
      "都": 8370,
      "郾": 8371,
      "郿": 8372,
      "鄀": 8373,
      "鄂": 8374,
      "鄄": 8375,
      "鄅": 8376,
      "鄏": 8377,
      "鄗": 8378,
      "鄘": 8379,
      "鄙": 8380,
      "鄚": 8381,
      "鄛": 8382,
      "鄜": 8383,
      "鄞": 8384,
      "鄠": 8385,
      "鄢": 8386,
      "鄣": 8387,
      "鄫": 8388,
      "鄮": 8389,
      "鄯": 8390,
      "鄱": 8391,
      "鄹": 8392,
      "酂": 8393,
      "酃": 8394,
      "酅": 8395,
      "酆": 8396,
      "酉": 8397,
      "酊": 8398,
      "酋": 8399,
      "酌": 8400,
      "配": 8401,
      "酎": 8402,
      "酏": 8403,
      "酒": 8404,
      "酕": 8405,
      "酖": 8406,
      "酗": 8407,
      "酘": 8408,
      "酝": 8409,
      "酟": 8410,
      "酡": 8411,
      "酢": 8412,
      "酣": 8413,
      "酤": 8414,
      "酥": 8415,
      "酦": 8416,
      "酩": 8417,
      "酪": 8418,
      "酬": 8419,
      "酮": 8420,
      "酰": 8421,
      "酱": 8422,
      "酲": 8423,
      "酳": 8424,
      "酴": 8425,
      "酶": 8426,
      "酷": 8427,
      "酸": 8428,
      "酹": 8429,
      "酺": 8430,
      "酽": 8431,
      "酾": 8432,
      "酿": 8433,
      "醁": 8434,
      "醄": 8435,
      "醅": 8436,
      "醇": 8437,
      "醉": 8438,
      "醊": 8439,
      "醋": 8440,
      "醌": 8441,
      "醍": 8442,
      "醐": 8443,
      "醑": 8444,
      "醒": 8445,
      "醝": 8446,
      "醟": 8447,
      "醢": 8448,
      "醥": 8449,
      "醦": 8450,
      "醨": 8451,
      "醪": 8452,
      "醭": 8453,
      "醮": 8454,
      "醯": 8455,
      "醰": 8456,
      "醲": 8457,
      "醳": 8458,
      "醴": 8459,
      "醵": 8460,
      "醷": 8461,
      "醹": 8462,
      "醺": 8463,
      "醽": 8464,
      "醾": 8465,
      "釂": 8466,
      "采": 8467,
      "釉": 8468,
      "释": 8469,
      "里": 8470,
      "重": 8471,
      "野": 8472,
      "量": 8473,
      "釐": 8474,
      "金": 8475,
      "釜": 8476,
      "釭": 8477,
      "釱": 8478,
      "釳": 8479,
      "釴": 8480,
      "釶": 8481,
      "鈇": 8482,
      "鈋": 8483,
      "鈯": 8484,
      "鉊": 8485,
      "鉎": 8486,
      "鉔": 8487,
      "鉟": 8488,
      "鉥": 8489,
      "鉧": 8490,
      "鉰": 8491,
      "鉴": 8492,
      "鉷": 8493,
      "鉼": 8494,
      "銙": 8495,
      "銮": 8496,
      "銶": 8497,
      "鋂": 8498,
      "鋉": 8499,
      "鋋": 8500,
      "鋗": 8501,
      "鋧": 8502,
      "鋹": 8503,
      "鋻": 8504,
      "錋": 8505,
      "錍": 8506,
      "錣": 8507,
      "錤": 8508,
      "錵": 8509,
      "錻": 8510,
      "錽": 8511,
      "鍉": 8512,
      "鍊": 8513,
      "鍧": 8514,
      "鍪": 8515,
      "鍮": 8516,
      "鎏": 8517,
      "鎑": 8518,
      "鎗": 8519,
      "鎝": 8520,
      "鎞": 8521,
      "鏄": 8522,
      "鏊": 8523,
      "鏕": 8524,
      "鏖": 8525,
      "鏦": 8526,
      "鏬": 8527,
      "鏴": 8528,
      "鐀": 8529,
      "鐍": 8530,
      "鐎": 8531,
      "鐏": 8532,
      "鐯": 8533,
      "鐻": 8534,
      "鑋": 8535,
      "鑴": 8536,
      "钁": 8537,
      "钃": 8538,
      "针": 8539,
      "钉": 8540,
      "钏": 8541,
      "钐": 8542,
      "钑": 8543,
      "钓": 8544,
      "钖": 8545,
      "钗": 8546,
      "钘": 8547,
      "钜": 8548,
      "钝": 8549,
      "钞": 8550,
      "钟": 8551,
      "钢": 8552,
      "钤": 8553,
      "钥": 8554,
      "钦": 8555,
      "钧": 8556,
      "钩": 8557,
      "钭": 8558,
      "钮": 8559,
      "钰": 8560,
      "钱": 8561,
      "钲": 8562,
      "钳": 8563,
      "钴": 8564,
      "钵": 8565,
      "钹": 8566,
      "钺": 8567,
      "钻": 8568,
      "钿": 8569,
      "铁": 8570,
      "铂": 8571,
      "铃": 8572,
      "铄": 8573,
      "铅": 8574,
      "铉": 8575,
      "铊": 8576,
      "铋": 8577,
      "铌": 8578,
      "铍": 8579,
      "铎": 8580,
      "铏": 8581,
      "铒": 8582,
      "铓": 8583,
      "铗": 8584,
      "铘": 8585,
      "铙": 8586,
      "铚": 8587,
      "铛": 8588,
      "铜": 8589,
      "铝": 8590,
      "铠": 8591,
      "铡": 8592,
      "铢": 8593,
      "铣": 8594,
      "铤": 8595,
      "铦": 8596,
      "铨": 8597,
      "铩": 8598,
      "铪": 8599,
      "铫": 8600,
      "铬": 8601,
      "铭": 8602,
      "铮": 8603,
      "铰": 8604,
      "铲": 8605,
      "铳": 8606,
      "银": 8607,
      "铸": 8608,
      "铺": 8609,
      "铻": 8610,
      "链": 8611,
      "铿": 8612,
      "销": 8613,
      "锁": 8614,
      "锄": 8615,
      "锅": 8616,
      "锈": 8617,
      "锉": 8618,
      "锊": 8619,
      "锋": 8620,
      "锐": 8621,
      "锒": 8622,
      "锓": 8623,
      "锖": 8624,
      "错": 8625,
      "锚": 8626,
      "锜": 8627,
      "锟": 8628,
      "锡": 8629,
      "锢": 8630,
      "锣": 8631,
      "锤": 8632,
      "锥": 8633,
      "锦": 8634,
      "锧": 8635,
      "锨": 8636,
      "锭": 8637,
      "键": 8638,
      "锯": 8639,
      "锰": 8640,
      "锱": 8641,
      "锲": 8642,
      "锴": 8643,
      "锵": 8644,
      "锷": 8645,
      "锸": 8646,
      "锹": 8647,
      "锻": 8648,
      "锼": 8649,
      "锽": 8650,
      "锾": 8651,
      "镀": 8652,
      "镂": 8653,
      "镃": 8654,
      "镆": 8655,
      "镇": 8656,
      "镈": 8657,
      "镊": 8658,
      "镌": 8659,
      "镏": 8660,
      "镐": 8661,
      "镒": 8662,
      "镔": 8663,
      "镕": 8664,
      "镖": 8665,
      "镗": 8666,
      "镘": 8667,
      "镛": 8668,
      "镜": 8669,
      "镝": 8670,
      "镞": 8671,
      "镠": 8672,
      "镡": 8673,
      "镣": 8674,
      "镦": 8675,
      "镪": 8676,
      "镫": 8677,
      "镬": 8678,
      "镭": 8679,
      "镮": 8680,
      "镯": 8681,
      "镰": 8682,
      "镳": 8683,
      "镴": 8684,
      "镵": 8685,
      "镶": 8686,
      "长": 8687,
      "閍": 8688,
      "閒": 8689,
      "閜": 8690,
      "閟": 8691,
      "閤": 8692,
      "閦": 8693,
      "閧": 8694,
      "闆": 8695,
      "闇": 8696,
      "闉": 8697,
      "闑": 8698,
      "闛": 8699,
      "闟": 8700,
      "门": 8701,
      "闩": 8702,
      "闪": 8703,
      "闫": 8704,
      "闬": 8705,
      "闭": 8706,
      "问": 8707,
      "闯": 8708,
      "闰": 8709,
      "闱": 8710,
      "闲": 8711,
      "闳": 8712,
      "间": 8713,
      "闵": 8714,
      "闶": 8715,
      "闷": 8716,
      "闸": 8717,
      "闹": 8718,
      "闺": 8719,
      "闻": 8720,
      "闼": 8721,
      "闽": 8722,
      "闾": 8723,
      "闿": 8724,
      "阀": 8725,
      "阁": 8726,
      "阂": 8727,
      "阃": 8728,
      "阄": 8729,
      "阅": 8730,
      "阆": 8731,
      "阇": 8732,
      "阈": 8733,
      "阉": 8734,
      "阊": 8735,
      "阋": 8736,
      "阌": 8737,
      "阍": 8738,
      "阎": 8739,
      "阏": 8740,
      "阐": 8741,
      "阑": 8742,
      "阒": 8743,
      "阓": 8744,
      "阔": 8745,
      "阕": 8746,
      "阖": 8747,
      "阗": 8748,
      "阘": 8749,
      "阙": 8750,
      "阚": 8751,
      "阛": 8752,
      "阜": 8753,
      "队": 8754,
      "阡": 8755,
      "阨": 8756,
      "阪": 8757,
      "阮": 8758,
      "阯": 8759,
      "阰": 8760,
      "阱": 8761,
      "防": 8762,
      "阳": 8763,
      "阴": 8764,
      "阵": 8765,
      "阶": 8766,
      "阹": 8767,
      "阻": 8768,
      "阼": 8769,
      "阽": 8770,
      "阿": 8771,
      "陀": 8772,
      "陁": 8773,
      "陂": 8774,
      "附": 8775,
      "际": 8776,
      "陆": 8777,
      "陇": 8778,
      "陈": 8779,
      "陉": 8780,
      "陊": 8781,
      "陋": 8782,
      "陌": 8783,
      "降": 8784,
      "限": 8785,
      "陑": 8786,
      "陔": 8787,
      "陕": 8788,
      "陛": 8789,
      "陜": 8790,
      "陟": 8791,
      "陡": 8792,
      "院": 8793,
      "除": 8794,
      "陨": 8795,
      "险": 8796,
      "陪": 8797,
      "陬": 8798,
      "陲": 8799,
      "陴": 8800,
      "陵": 8801,
      "陶": 8802,
      "陷": 8803,
      "隃": 8804,
      "隅": 8805,
      "隆": 8806,
      "隈": 8807,
      "隉": 8808,
      "隋": 8809,
      "隍": 8810,
      "随": 8811,
      "隐": 8812,
      "隑": 8813,
      "隔": 8814,
      "隗": 8815,
      "隘": 8816,
      "隙": 8817,
      "障": 8818,
      "隤": 8819,
      "隥": 8820,
      "隧": 8821,
      "隩": 8822,
      "隮": 8823,
      "隰": 8824,
      "隳": 8825,
      "隶": 8826,
      "隹": 8827,
      "隺": 8828,
      "隼": 8829,
      "隽": 8830,
      "难": 8831,
      "雀": 8832,
      "雁": 8833,
      "雄": 8834,
      "雅": 8835,
      "集": 8836,
      "雇": 8837,
      "雈": 8838,
      "雉": 8839,
      "雊": 8840,
      "雌": 8841,
      "雍": 8842,
      "雎": 8843,
      "雏": 8844,
      "雒": 8845,
      "雔": 8846,
      "雕": 8847,
      "雗": 8848,
      "雘": 8849,
      "雚": 8850,
      "雠": 8851,
      "雨": 8852,
      "雩": 8853,
      "雪": 8854,
      "雭": 8855,
      "雯": 8856,
      "雰": 8857,
      "雱": 8858,
      "雳": 8859,
      "零": 8860,
      "雷": 8861,
      "雹": 8862,
      "雺": 8863,
      "雾": 8864,
      "雿": 8865,
      "需": 8866,
      "霁": 8867,
      "霂": 8868,
      "霄": 8869,
      "霅": 8870,
      "霆": 8871,
      "震": 8872,
      "霈": 8873,
      "霉": 8874,
      "霋": 8875,
      "霍": 8876,
      "霎": 8877,
      "霏": 8878,
      "霐": 8879,
      "霓": 8880,
      "霔": 8881,
      "霖": 8882,
      "霙": 8883,
      "霜": 8884,
      "霞": 8885,
      "霢": 8886,
      "霣": 8887,
      "霤": 8888,
      "霪": 8889,
      "霫": 8890,
      "霭": 8891,
      "霮": 8892,
      "霰": 8893,
      "露": 8894,
      "霳": 8895,
      "霶": 8896,
      "霸": 8897,
      "霹": 8898,
      "霾": 8899,
      "霿": 8900,
      "靀": 8901,
      "靃": 8902,
      "靊": 8903,
      "青": 8904,
      "靓": 8905,
      "靖": 8906,
      "靘": 8907,
      "静": 8908,
      "靛": 8909,
      "非": 8910,
      "靠": 8911,
      "靡": 8912,
      "面": 8913,
      "靥": 8914,
      "靧": 8915,
      "革": 8916,
      "靫": 8917,
      "靬": 8918,
      "靮": 8919,
      "靳": 8920,
      "靴": 8921,
      "靶": 8922,
      "靷": 8923,
      "靸": 8924,
      "靺": 8925,
      "靼": 8926,
      "靽": 8927,
      "靿": 8928,
      "鞁": 8929,
      "鞅": 8930,
      "鞈": 8931,
      "鞋": 8932,
      "鞍": 8933,
      "鞑": 8934,
      "鞒": 8935,
      "鞓": 8936,
      "鞔": 8937,
      "鞗": 8938,
      "鞘": 8939,
      "鞙": 8940,
      "鞚": 8941,
      "鞞": 8942,
      "鞟": 8943,
      "鞠": 8944,
      "鞢": 8945,
      "鞦": 8946,
      "鞧": 8947,
      "鞨": 8948,
      "鞫": 8949,
      "鞬": 8950,
      "鞭": 8951,
      "鞮": 8952,
      "鞯": 8953,
      "鞲": 8954,
      "鞳": 8955,
      "鞴": 8956,
      "鞶": 8957,
      "鞺": 8958,
      "鞻": 8959,
      "鞿": 8960,
      "韂": 8961,
      "韅": 8962,
      "韆": 8963,
      "韊": 8964,
      "韎": 8965,
      "韐": 8966,
      "韔": 8967,
      "韘": 8968,
      "韛": 8969,
      "韝": 8970,
      "韠": 8971,
      "韡": 8972,
      "韣": 8973,
      "韦": 8974,
      "韧": 8975,
      "韨": 8976,
      "韩": 8977,
      "韪": 8978,
      "韫": 8979,
      "韬": 8980,
      "韭": 8981,
      "音": 8982,
      "韵": 8983,
      "韶": 8984,
      "韸": 8985,
      "韺": 8986,
      "韽": 8987,
      "頀": 8988,
      "頍": 8989,
      "頖": 8990,
      "頞": 8991,
      "頠": 8992,
      "頣": 8993,
      "頧": 8994,
      "頩": 8995,
      "頫": 8996,
      "顑": 8997,
      "顗": 8998,
      "顟": 8999,
      "顤": 9000,
      "页": 9001,
      "顶": 9002,
      "顷": 9003,
      "顸": 9004,
      "项": 9005,
      "顺": 9006,
      "须": 9007,
      "顼": 9008,
      "顽": 9009,
      "顾": 9010,
      "顿": 9011,
      "颀": 9012,
      "颁": 9013,
      "颂": 9014,
      "颃": 9015,
      "预": 9016,
      "颅": 9017,
      "领": 9018,
      "颇": 9019,
      "颈": 9020,
      "颉": 9021,
      "颊": 9022,
      "颌": 9023,
      "颍": 9024,
      "颎": 9025,
      "颏": 9026,
      "颐": 9027,
      "频": 9028,
      "颒": 9029,
      "颓": 9030,
      "颔": 9031,
      "颖": 9032,
      "颗": 9033,
      "题": 9034,
      "颙": 9035,
      "颛": 9036,
      "颜": 9037,
      "额": 9038,
      "颞": 9039,
      "颟": 9040,
      "颠": 9041,
      "颡": 9042,
      "颢": 9043,
      "颣": 9044,
      "颤": 9045,
      "颥": 9046,
      "颦": 9047,
      "颧": 9048,
      "颴": 9049,
      "颾": 9050,
      "飂": 9051,
      "飋": 9052,
      "风": 9053,
      "飏": 9054,
      "飐": 9055,
      "飑": 9056,
      "飒": 9057,
      "飓": 9058,
      "飔": 9059,
      "飕": 9060,
      "飖": 9061,
      "飗": 9062,
      "飘": 9063,
      "飙": 9064,
      "飞": 9065,
      "食": 9066,
      "飧": 9067,
      "飨": 9068,
      "飶": 9069,
      "餂": 9070,
      "餈": 9071,
      "餋": 9072,
      "餍": 9073,
      "餐": 9074,
      "餔": 9075,
      "餗": 9076,
      "餤": 9077,
      "餦": 9078,
      "餪": 9079,
      "餫": 9080,
      "餭": 9081,
      "餮": 9082,
      "餴": 9083,
      "餸": 9084,
      "饀": 9085,
      "饆": 9086,
      "饎": 9087,
      "饐": 9088,
      "饔": 9089,
      "饕": 9090,
      "饘": 9091,
      "饙": 9092,
      "饛": 9093,
      "饟": 9094,
      "饠": 9095,
      "饤": 9096,
      "饥": 9097,
      "饦": 9098,
      "饧": 9099,
      "饨": 9100,
      "饩": 9101,
      "饪": 9102,
      "饫": 9103,
      "饬": 9104,
      "饭": 9105,
      "饮": 9106,
      "饯": 9107,
      "饰": 9108,
      "饱": 9109,
      "饲": 9110,
      "饳": 9111,
      "饴": 9112,
      "饵": 9113,
      "饶": 9114,
      "饷": 9115,
      "饼": 9116,
      "饽": 9117,
      "饾": 9118,
      "饿": 9119,
      "馀": 9120,
      "馁": 9121,
      "馂": 9122,
      "馄": 9123,
      "馅": 9124,
      "馆": 9125,
      "馈": 9126,
      "馉": 9127,
      "馊": 9128,
      "馋": 9129,
      "馌": 9130,
      "馎": 9131,
      "馏": 9132,
      "馐": 9133,
      "馑": 9134,
      "馒": 9135,
      "馔": 9136,
      "馕": 9137,
      "首": 9138,
      "馗": 9139,
      "馘": 9140,
      "香": 9141,
      "馝": 9142,
      "馞": 9143,
      "馡": 9144,
      "馣": 9145,
      "馤": 9146,
      "馥": 9147,
      "馨": 9148,
      "馩": 9149,
      "馯": 9150,
      "馲": 9151,
      "馵": 9152,
      "馺": 9153,
      "駃": 9154,
      "駉": 9155,
      "駊": 9156,
      "駏": 9157,
      "駓": 9158,
      "駖": 9159,
      "駜": 9160,
      "駪": 9161,
      "駬": 9162,
      "駮": 9163,
      "駴": 9164,
      "駹": 9165,
      "駻": 9166,
      "駼": 9167,
      "駽": 9168,
      "騀": 9169,
      "騃": 9170,
      "騄": 9171,
      "騊": 9172,
      "騋": 9173,
      "騑": 9174,
      "騕": 9175,
      "騞": 9176,
      "騟": 9177,
      "騠": 9178,
      "騣": 9179,
      "騧": 9180,
      "騩": 9181,
      "騪": 9182,
      "騱": 9183,
      "驉": 9184,
      "驎": 9185,
      "驒": 9186,
      "驔": 9187,
      "驖": 9188,
      "驩": 9189,
      "马": 9190,
      "驭": 9191,
      "驮": 9192,
      "驯": 9193,
      "驰": 9194,
      "驱": 9195,
      "驲": 9196,
      "驳": 9197,
      "驴": 9198,
      "驵": 9199,
      "驶": 9200,
      "驷": 9201,
      "驸": 9202,
      "驹": 9203,
      "驺": 9204,
      "驻": 9205,
      "驼": 9206,
      "驽": 9207,
      "驾": 9208,
      "驿": 9209,
      "骀": 9210,
      "骁": 9211,
      "骂": 9212,
      "骃": 9213,
      "骄": 9214,
      "骅": 9215,
      "骆": 9216,
      "骇": 9217,
      "骈": 9218,
      "骊": 9219,
      "骋": 9220,
      "验": 9221,
      "骍": 9222,
      "骎": 9223,
      "骏": 9224,
      "骐": 9225,
      "骑": 9226,
      "骒": 9227,
      "骓": 9228,
      "骕": 9229,
      "骖": 9230,
      "骗": 9231,
      "骘": 9232,
      "骙": 9233,
      "骚": 9234,
      "骛": 9235,
      "骜": 9236,
      "骝": 9237,
      "骞": 9238,
      "骠": 9239,
      "骡": 9240,
      "骢": 9241,
      "骣": 9242,
      "骤": 9243,
      "骥": 9244,
      "骦": 9245,
      "骧": 9246,
      "骨": 9247,
      "骪": 9248,
      "骫": 9249,
      "骭": 9250,
      "骰": 9251,
      "骱": 9252,
      "骲": 9253,
      "骳": 9254,
      "骴": 9255,
      "骷": 9256,
      "骸": 9257,
      "骹": 9258,
      "骼": 9259,
      "髀": 9260,
      "髁": 9261,
      "髂": 9262,
      "髅": 9263,
      "髇": 9264,
      "髋": 9265,
      "髐": 9266,
      "髑": 9267,
      "髓": 9268,
      "高": 9269,
      "髟": 9270,
      "髡": 9271,
      "髣": 9272,
      "髦": 9273,
      "髧": 9274,
      "髫": 9275,
      "髭": 9276,
      "髯": 9277,
      "髴": 9278,
      "髵": 9279,
      "髹": 9280,
      "髺": 9281,
      "髻": 9282,
      "髼": 9283,
      "髽": 9284,
      "髾": 9285,
      "髿": 9286,
      "鬃": 9287,
      "鬅": 9288,
      "鬇": 9289,
      "鬈": 9290,
      "鬉": 9291,
      "鬋": 9292,
      "鬌": 9293,
      "鬐": 9294,
      "鬑": 9295,
      "鬒": 9296,
      "鬓": 9297,
      "鬔": 9298,
      "鬕": 9299,
      "鬖": 9300,
      "鬘": 9301,
      "鬙": 9302,
      "鬝": 9303,
      "鬞": 9304,
      "鬟": 9305,
      "鬡": 9306,
      "鬣": 9307,
      "鬨": 9308,
      "鬯": 9309,
      "鬲": 9310,
      "鬳": 9311,
      "鬵": 9312,
      "鬷": 9313,
      "鬺": 9314,
      "鬻": 9315,
      "鬼": 9316,
      "鬾": 9317,
      "鬿": 9318,
      "魁": 9319,
      "魂": 9320,
      "魃": 9321,
      "魄": 9322,
      "魅": 9323,
      "魆": 9324,
      "魇": 9325,
      "魈": 9326,
      "魉": 9327,
      "魋": 9328,
      "魌": 9329,
      "魍": 9330,
      "魏": 9331,
      "魑": 9332,
      "魔": 9333,
      "魖": 9334,
      "魗": 9335,
      "魫": 9336,
      "魮": 9337,
      "魶": 9338,
      "魿": 9339,
      "鮀": 9340,
      "鮕": 9341,
      "鮠": 9342,
      "鮬": 9343,
      "鮰": 9344,
      "鮹": 9345,
      "鯂": 9346,
      "鯆": 9347,
      "鯈": 9348,
      "鯓": 9349,
      "鯬": 9350,
      "鯸": 9351,
      "鯹": 9352,
      "鯻": 9353,
      "鰅": 9354,
      "鰋": 9355,
      "鰦": 9356,
      "鰸": 9357,
      "鱊": 9358,
      "鱍": 9359,
      "鱎": 9360,
      "鱐": 9361,
      "鱮": 9362,
      "鱲": 9363,
      "鱼": 9364,
      "鱽": 9365,
      "鲀": 9366,
      "鲁": 9367,
      "鲂": 9368,
      "鲅": 9369,
      "鲇": 9370,
      "鲈": 9371,
      "鲊": 9372,
      "鲋": 9373,
      "鲍": 9374,
      "鲎": 9375,
      "鲐": 9376,
      "鲑": 9377,
      "鲒": 9378,
      "鲔": 9379,
      "鲕": 9380,
      "鲖": 9381,
      "鲗": 9382,
      "鲙": 9383,
      "鲚": 9384,
      "鲛": 9385,
      "鲜": 9386,
      "鲞": 9387,
      "鲟": 9388,
      "鲠": 9389,
      "鲡": 9390,
      "鲢": 9391,
      "鲤": 9392,
      "鲥": 9393,
      "鲦": 9394,
      "鲧": 9395,
      "鲨": 9396,
      "鲩": 9397,
      "鲫": 9398,
      "鲭": 9399,
      "鲮": 9400,
      "鲰": 9401,
      "鲲": 9402,
      "鲳": 9403,
      "鲵": 9404,
      "鲸": 9405,
      "鲻": 9406,
      "鲼": 9407,
      "鲽": 9408,
      "鲿": 9409,
      "鳀": 9410,
      "鳃": 9411,
      "鳄": 9412,
      "鳅": 9413,
      "鳆": 9414,
      "鳇": 9415,
      "鳊": 9416,
      "鳌": 9417,
      "鳍": 9418,
      "鳏": 9419,
      "鳐": 9420,
      "鳒": 9421,
      "鳔": 9422,
      "鳖": 9423,
      "鳗": 9424,
      "鳘": 9425,
      "鳙": 9426,
      "鳛": 9427,
      "鳜": 9428,
      "鳝": 9429,
      "鳞": 9430,
      "鳟": 9431,
      "鳠": 9432,
      "鳢": 9433,
      "鳣": 9434,
      "鳦": 9435,
      "鳭": 9436,
      "鳷": 9437,
      "鳸": 9438,
      "鳼": 9439,
      "鳿": 9440,
      "鴂": 9441,
      "鴃": 9442,
      "鴎": 9443,
      "鴐": 9444,
      "鴥": 9445,
      "鴳": 9446,
      "鴶": 9447,
      "鴸": 9448,
      "鴽": 9449,
      "鵀": 9450,
      "鵁": 9451,
      "鵊": 9452,
      "鵎": 9453,
      "鵔": 9454,
      "鵙": 9455,
      "鵛": 9456,
      "鵣": 9457,
      "鵧": 9458,
      "鵩": 9459,
      "鵳": 9460,
      "鵴": 9461,
      "鵹": 9462,
      "鵻": 9463,
      "鵼": 9464,
      "鵽": 9465,
      "鶄": 9466,
      "鶋": 9467,
      "鶌": 9468,
      "鶑": 9469,
      "鶒": 9470,
      "鶗": 9471,
      "鶠": 9472,
      "鶢": 9473,
      "鶤": 9474,
      "鶧": 9475,
      "鶱": 9476,
      "鷅": 9477,
      "鷇": 9478,
      "鷕": 9479,
      "鷘": 9480,
      "鷟": 9481,
      "鷠": 9482,
      "鷡": 9483,
      "鷣": 9484,
      "鷤": 9485,
      "鷩": 9486,
      "鷮": 9487,
      "鷾": 9488,
      "鸀": 9489,
      "鸂": 9490,
      "鸃": 9491,
      "鸊": 9492,
      "鸋": 9493,
      "鸐": 9494,
      "鸑": 9495,
      "鸒": 9496,
      "鸙": 9497,
      "鸟": 9498,
      "鸠": 9499,
      "鸡": 9500,
      "鸢": 9501,
      "鸣": 9502,
      "鸤": 9503,
      "鸥": 9504,
      "鸦": 9505,
      "鸧": 9506,
      "鸨": 9507,
      "鸩": 9508,
      "鸪": 9509,
      "鸬": 9510,
      "鸭": 9511,
      "鸮": 9512,
      "鸯": 9513,
      "鸰": 9514,
      "鸱": 9515,
      "鸲": 9516,
      "鸳": 9517,
      "鸴": 9518,
      "鸶": 9519,
      "鸷": 9520,
      "鸸": 9521,
      "鸹": 9522,
      "鸺": 9523,
      "鸼": 9524,
      "鸽": 9525,
      "鸾": 9526,
      "鸿": 9527,
      "鹁": 9528,
      "鹂": 9529,
      "鹃": 9530,
      "鹄": 9531,
      "鹅": 9532,
      "鹆": 9533,
      "鹇": 9534,
      "鹈": 9535,
      "鹉": 9536,
      "鹊": 9537,
      "鹌": 9538,
      "鹍": 9539,
      "鹎": 9540,
      "鹏": 9541,
      "鹐": 9542,
      "鹑": 9543,
      "鹒": 9544,
      "鹓": 9545,
      "鹔": 9546,
      "鹕": 9547,
      "鹖": 9548,
      "鹗": 9549,
      "鹘": 9550,
      "鹙": 9551,
      "鹚": 9552,
      "鹛": 9553,
      "鹜": 9554,
      "鹝": 9555,
      "鹞": 9556,
      "鹠": 9557,
      "鹡": 9558,
      "鹢": 9559,
      "鹣": 9560,
      "鹤": 9561,
      "鹥": 9562,
      "鹦": 9563,
      "鹧": 9564,
      "鹩": 9565,
      "鹪": 9566,
      "鹫": 9567,
      "鹬": 9568,
      "鹭": 9569,
      "鹯": 9570,
      "鹰": 9571,
      "鹱": 9572,
      "鹳": 9573,
      "鹴": 9574,
      "鹾": 9575,
      "鹿": 9576,
      "麀": 9577,
      "麂": 9578,
      "麃": 9579,
      "麇": 9580,
      "麈": 9581,
      "麋": 9582,
      "麌": 9583,
      "麑": 9584,
      "麒": 9585,
      "麓": 9586,
      "麖": 9587,
      "麚": 9588,
      "麛": 9589,
      "麜": 9590,
      "麝": 9591,
      "麟": 9592,
      "麡": 9593,
      "麦": 9594,
      "麨": 9595,
      "麰": 9596,
      "麴": 9597,
      "麷": 9598,
      "麸": 9599,
      "麻": 9600,
      "麾": 9601,
      "黁": 9602,
      "黄": 9603,
      "黅": 9604,
      "黈": 9605,
      "黉": 9606,
      "黋": 9607,
      "黍": 9608,
      "黎": 9609,
      "黏": 9610,
      "黐": 9611,
      "黑": 9612,
      "黓": 9613,
      "黔": 9614,
      "黕": 9615,
      "默": 9616,
      "黛": 9617,
      "黜": 9618,
      "黝": 9619,
      "黟": 9620,
      "黠": 9621,
      "黡": 9622,
      "黤": 9623,
      "黥": 9624,
      "黦": 9625,
      "黧": 9626,
      "黩": 9627,
      "黪": 9628,
      "黭": 9629,
      "黮": 9630,
      "黯": 9631,
      "黳": 9632,
      "黴": 9633,
      "黹": 9634,
      "黻": 9635,
      "黼": 9636,
      "黾": 9637,
      "鼀": 9638,
      "鼁": 9639,
      "鼊": 9640,
      "鼋": 9641,
      "鼌": 9642,
      "鼍": 9643,
      "鼎": 9644,
      "鼐": 9645,
      "鼒": 9646,
      "鼓": 9647,
      "鼕": 9648,
      "鼗": 9649,
      "鼙": 9650,
      "鼛": 9651,
      "鼜": 9652,
      "鼟": 9653,
      "鼠": 9654,
      "鼢": 9655,
      "鼩": 9656,
      "鼪": 9657,
      "鼬": 9658,
      "鼮": 9659,
      "鼯": 9660,
      "鼲": 9661,
      "鼵": 9662,
      "鼷": 9663,
      "鼹": 9664,
      "鼻": 9665,
      "鼽": 9666,
      "鼾": 9667,
      "齁": 9668,
      "齆": 9669,
      "齍": 9670,
      "齐": 9671,
      "齑": 9672,
      "齘": 9673,
      "齝": 9674,
      "齧": 9675,
      "齮": 9676,
      "齯": 9677,
      "齰": 9678,
      "齼": 9679,
      "齽": 9680,
      "齾": 9681,
      "齿": 9682,
      "龀": 9683,
      "龁": 9684,
      "龂": 9685,
      "龃": 9686,
      "龄": 9687,
      "龆": 9688,
      "龈": 9689,
      "龉": 9690,
      "龊": 9691,
      "龋": 9692,
      "龌": 9693,
      "龙": 9694,
      "龚": 9695,
      "龛": 9696,
      "龟": 9697,
      "龠": 9698,
      "": 9699,
      "": 9700,
      "": 9701,
      "": 9702,
      "": 9703,
      "": 9704,
      "": 9705,
      "": 9706,
      "": 9707,
      "": 9708,
      "": 9709,
      "": 9710,
      "": 9711,
      "": 9712,
      "": 9713,
      "": 9714,
      "": 9715,
      "": 9716,
      "": 9717,
      "": 9718,
      "": 9719,
      "": 9720,
      "": 9721,
      "": 9722,
      "": 9723,
      "": 9724,
      "裏": 9725,
      "隣": 9726,
      "兀": 9727,
      "﻿": 9728,
      "！": 9729,
      "（": 9730,
      "）": 9731,
      "，": 9732,
      "：": 9733,
      "；": 9734,
      "？": 9735,
      "Ｃ": 9736,
      "Ｄ": 9737,
      "Ｑ": 9738,
      "Ｔ": 9739,
      "～": 9740,
      "。\n": 9741,
      "何处": 9742,
      "不知": 9743,
      "春风": 9744,
      "万里": 9745,
      "白云": 9746,
      "人间": 9747,
      "青山": 9748,
      "明月": 9749,
      "千里": 9750,
      "风吹": 9751,
      "不见": 9752,
      "今日": 9753,
      "风雨": 9754,
      "无人": 9755,
      "梅花": 9756,
      "秋风": 9757,
      "东风": 9758,
      "江南": 9759,
      "故人": 9760,
      "平生": 9761,
      "不可": 9762,
      "如何": 9763,
      "十年": 9764,
      "夕阳": 9765,
      "归来": 9766,
      "西风": 9767,
      "可怜": 9768,
      "不是": 9769,
      "流水": 9770,
      "桃花": 9771,
      "回首": 9772,
      "相逢": 9773,
      "天涯": 9774,
      "当年": 9775,
      "天地": 9776,
      "山中": 9777,
      "相思": 9778,
      "何人": 9779,
      "风流": 9780,
      "白发": 9781,
      "落日": 9782,
      "江上": 9783,
      "月明": 9784,
      "百年": 9785,
      "悠悠": 9786,
      "乾坤": 9787,
      "何事": 9788,
      "一片": 9789,
      "萧萧": 9790,
      "年年": 9791,
      "寂寞": 9792,
      "何如": 9793,
      "清风": 9794,
      "不须": 9795,
      "不得": 9796,
      "杨柳": 9797,
      "归去": 9798,
      "江湖": 9799,
      "扁舟": 9800,
      "落花": 9801,
      "千古": 9802,
      "何时": 9803,
      "花开": 9804,
      "芙蓉": 9805,
      "白头": 9806,
      "谁知": 9807,
      "春色": 9808,
      "芳草": 9809,
      "行人": 9810,
      "长安": 9811,
      "纷纷": 9812,
      "一枝": 9813,
      "先生": 9814,
      "分明": 9815,
      "人家": 9816,
      "天上": 9817,
      "白日": 9818,
      "□□": 9819,
      "江山": 9820,
      "不成": 9821,
      "千年": 9822,
      "如此": 9823,
      "当时": 9824,
      "斜阳": 9825,
      "不如": 9826,
      "一夜": 9827,
      "天下": 9828,
      "今朝": 9829,
      "黄金": 9830,
      "一声": 9831,
      "多少": 9832,
      "岁月": 9833,
      "何日": 9834,
      "日日": 9835,
      "千载": 9836,
      "秋色": 9837,
      "无限": 9838,
      "日月": 9839,
      "不能": 9840,
      "不堪": 9841,
      "日暮": 9842,
      "徘徊": 9843,
      "昨夜": 9844,
      "处处": 9845,
      "惆怅": 9846,
      "君王": 9847,
      "主人": 9848,
      "少年": 9849,
      "山色": 9850,
      "文章": 9851,
      "花落": 9852,
      "自有": 9853,
      "一笑": 9854,
      "三年": 9855,
      "风尘": 9856,
      "十里": 9857,
      "何须": 9858,
      "浮云": 9859,
      "桃李": 9860,
      "谁能": 9861,
      "几时": 9862,
      "将军": 9863,
      "不到": 9864,
      "不用": 9865,
      "黄昏": 9866,
      "至今": 9867,
      "茫茫": 9868,
      "美人": 9869,
      "空山": 9870,
      "夜深": 9871,
      "从此": 9872,
      "如今": 9873,
      "登临": 9874,
      "黄花": 9875,
      "有馀": 9876,
      "南山": 9877,
      "江水": 9878,
      "相对": 9879,
      "梦中": 9880,
      "相见": 9881,
      "惟有": 9882,
      "春来": 9883,
      "门前": 9884,
      "故园": 9885,
      "明朝": 9886,
      "消息": 9887,
      "烟霞": 9888,
      "第一": 9889,
      "人生": 9890,
      "从来": 9891,
      "十二": 9892,
      "青青": 9893,
      "千秋": 9894,
      "无事": 9895,
      "故乡": 9896,
      "无心": 9897,
      "春光": 9898,
      "无一": 9899,
      "万古": 9900,
      "读书": 9901,
      "深处": 9902,
      "细雨": 9903,
      "三月": 9904,
      "今年": 9905,
      "不胜": 9906,
      "新诗": 9907,
      "一曲": 9908,
      "山川": 9909,
      "秋水": 9910,
      "一时": 9911,
      "此日": 9912,
      "草木": 9913,
      "？\n": 9914,
      "安得": 9915,
      "山下": 9916,
      "不为": 9917,
      "雨过": 9918,
      "山水": 9919,
      "古人": 9920,
      "西湖": 9921,
      "何必": 9922,
      "终日": 9923,
      "年来": 9924,
      "海上": 9925,
      "岁寒": 9926,
      "不尽": 9927,
      "今夜": 9928,
      "谁家": 9929,
      "幽人": 9930,
      "世间": 9931,
      "别离": 9932,
      "不识": 9933,
      "相看": 9934,
      "神仙": 9935,
      "此地": 9936,
      "何曾": 9937,
      "依旧": 9938,
      "此时": 9939,
      "功名": 9940,
      "去年": 9941,
      "重来": 9942,
      "伤心": 9943,
      "落叶": 9944,
      "凄凉": 9945,
      "无端": 9946,
      "风月": 9947,
      "青天": 9948,
      "几度": 9949,
      "殷勤": 9950,
      "门外": 9951,
      "自是": 9952,
      "几人": 9953,
      "春水": 9954,
      "东西": 9955,
      "楼台": 9956,
      "看花": 9957,
      "万事": 9958,
      "世事": 9959,
      "一杯": 9960,
      "生涯": 9961,
      "寂寂": 9962,
      "仙人": 9963,
      "南北": 9964,
      "柴门": 9965,
      "洞庭": 9966,
      "古今": 9967,
      "明日": 9968,
      "中有": 9969,
      "红尘": 9970,
      "题诗": 9971,
      "鸳鸯": 9972,
      "翠微": 9973,
      "太平": 9974,
      "何年": 9975,
      "依依": 9976,
      "山林": 9977,
      "寂寥": 9978,
      "为谁": 9979,
      "蓬莱": 9980,
      "一年": 9981,
      "依然": 9982,
      "西山": 9983,
      "尽日": 9984,
      "四海": 9985,
      "不敢": 9986,
      "沧海": 9987,
      "此身": 9988,
      "阑干": 9989,
      "一日": 9990,
      "无穷": 9991,
      "茅屋": 9992,
      "无处": 9993,
      "无情": 9994,
      "青云": 9995,
      "秋声": 9996,
      "参差": 9997,
      "不似": 9998,
      "云山": 9999,
      "多情": 10000,
      "无复": 10001,
      "黄叶": 10002,
      "出门": 10003,
      "只有": 10004,
      "夜来": 10005,
      "苍茫": 10006,
      "诗人": 10007,
      "风光": 10008,
      "孤舟": 10009,
      "君子": 10010,
      "何所": 10011,
      "萧条": 10012,
      "有人": 10013,
      "此心": 10014,
      "几回": 10015,
      "烟雨": 10016,
      "三十": 10017,
      "独立": 10018,
      "车马": 10019,
      "燕子": 10020,
      "闻道": 10021,
      "游人": 10022,
      "犹未": 10023,
      "不相": 10024,
      "英雄": 10025,
      "白首": 10026,
      "梦里": 10027,
      "来往": 10028,
      "道人": 10029,
      "中原": 10030,
      "与君": 10031,
      "不觉": 10032,
      "不作": 10033,
      "无数": 10034,
      "一点": 10035,
      "无言": 10036,
      "夜雨": 10037,
      "高楼": 10038,
      "不同": 10039,
      "尘埃": 10040,
      "月色": 10041,
      "犹有": 10042,
      "春雨": 10043,
      "千山": 10044,
      "老去": 10045,
      "若为": 10046,
      "林下": 10047,
      "悠然": 10048,
      "匆匆": 10049,
      "零落": 10050,
      "飞来": 10051,
      "一生": 10052,
      "知音": 10053,
      "寻常": 10054,
      "归路": 10055,
      "何妨": 10056,
      "心事": 10057,
      "不肯": 10058,
      "一叶": 10059,
      "由来": 10060,
      "月下": 10061,
      "谁与": 10062,
      "草堂": 10063,
      "未得": 10064,
      "亦有": 10065,
      "二月": 10066,
      "纵横": 10067,
      "苍苍": 10068,
      "江头": 10069,
      "灯火": 10070,
      "断肠": 10071,
      "不妨": 10072,
      "千峰": 10073,
      "闭门": 10074,
      "使君": 10075,
      "一径": 10076,
      "春草": 10077,
      "佳人": 10078,
      "雨后": 10079,
      "何似": 10080,
      "迢迢": 10081,
      "天寒": 10082,
      "往来": 10083,
      "有时": 10084,
      "湖上": 10085,
      "秋来": 10086,
      "绿阴": 10087,
      "咫尺": 10088,
      "不自": 10089,
      "浮生": 10090,
      "夜夜": 10091,
      "漠漠": 10092,
      "何以": 10093,
      "三千": 10094,
      "不及": 10095,
      "故国": 10096,
      "翩翩": 10097,
      "垂杨": 10098,
      "夜半": 10099,
      "衣冠": 10100,
      "几日": 10101,
      "画图": 10102,
      "山河": 10103,
      "五更": 10104,
      "人心": 10105,
      "未能": 10106,
      "溪上": 10107,
      "此中": 10108,
      "朝来": 10109,
      "天子": 10110,
      "清明": 10111,
      "白玉": 10112,
      "百里": 10113,
      "为君": 10114,
      "月上": 10115,
      "富贵": 10116,
      "东南": 10117,
      "犹自": 10118,
      "千金": 10119,
      "他年": 10120,
      "松风": 10121,
      "海棠": 10122,
      "风烟": 10123,
      "云中": 10124,
      "时时": 10125,
      "旧时": 10126,
      "不复": 10127,
      "潇湘": 10128,
      "何当": 10129,
      "烟波": 10130,
      "百尺": 10131,
      "重阳": 10132,
      "飘零": 10133,
      "不解": 10134,
      "江流": 10135,
      "丹青": 10136,
      "于今": 10137,
      "我亦": 10138,
      "三更": 10139,
      "凤凰": 10140,
      "寒食": 10141,
      "风云": 10142,
      "儿童": 10143,
      "关山": 10144,
      "底事": 10145,
      "独坐": 10146,
      "犹在": 10147,
      "杏花": 10148,
      "儿女": 10149,
      "看山": 10150,
      "别有": 10151,
      "经年": 10152,
      "到处": 10153,
      "莫道": 10154,
      "溪水": 10155,
      "独有": 10156,
      "逢人": 10157,
      "摇落": 10158,
      "知君": 10159,
      "无多": 10160,
      "溪山": 10161,
      "王孙": 10162,
      "一身": 10163,
      "今古": 10164,
      "苍苔": 10165,
      "山头": 10166,
      "岁晚": 10167,
      "不来": 10168,
      "一水": 10169,
      "往事": 10170,
      "暮云": 10171,
      "沧浪": 10172,
      "吾道": 10173,
      "十载": 10174,
      "歌舞": 10175,
      "此生": 10176,
      "还家": 10177,
      "何用": 10178,
      "未归": 10179,
      "不曾": 10180,
      "精神": 10181,
      "罗浮": 10182,
      "两三": 10183,
      "君家": 10184,
      "水边": 10185,
      "风波": 10186,
      "那得": 10187,
      "风前": 10188,
      "斜日": 10189,
      "无声": 10190,
      "更有": 10191,
      "记得": 10192,
      "白雪": 10193,
      "花枝": 10194,
      "三径": 10195,
      "天风": 10196,
      "我来": 10197,
      "夜月": 10198,
      "为客": 10199,
      "憔悴": 10200,
      "昨日": 10201,
      "花香": 10202,
      "未必": 10203,
      "风霜": 10204,
      "十日": 10205,
      "春寒": 10206,
      "水流": 10207,
      "水云": 10208,
      "回头": 10209,
      "临风": 10210,
      "五色": 10211,
      "而今": 10212,
      "自怜": 10213,
      "有客": 10214,
      "萧然": 10215,
      "珍重": 10216,
      "五湖": 10217,
      "雨声": 10218,
      "年华": 10219,
      "满地": 10220,
      "公子": 10221,
      "游子": 10222,
      "酒杯": 10223,
      "春深": 10224,
      "马蹄": 10225,
      "世人": 10226,
      "六月": 10227,
      "自知": 10228,
      "不忍": 10229,
      "孤城": 10230,
      "无语": 10231,
      "风起": 10232,
      "千万": 10233,
      "钟声": 10234,
      "湖山": 10235,
      "远山": 10236,
      "知己": 10237,
      "谁为": 10238,
      "载酒": 10239,
      "来时": 10240,
      "秋光": 10241,
      "诗书": 10242,
      "青春": 10243,
      "天外": 10244,
      "不在": 10245,
      "碧云": 10246,
      "逍遥": 10247,
      "他日": 10248,
      "月照": 10249,
      "风景": 10250,
      "颜色": 10251,
      "花飞": 10252,
      "春归": 10253,
      "古木": 10254,
      "向来": 10255,
      "几年": 10256,
      "焚香": 10257,
      "野水": 10258,
      "风雪": 10259,
      "五月": 10260,
      "把酒": 10261,
      "知是": 10262,
      "古寺": 10263,
      "人事": 10264,
      "今宵": 10265,
      "蹉跎": 10266,
      "白鸥": 10267,
      "相望": 10268,
      "万壑": 10269,
      "思君": 10270,
      "晚风": 10271,
      "园林": 10272,
      "旧游": 10273,
      "借问": 10274,
      "时节": 10275,
      "登楼": 10276,
      "两岸": 10277,
      "应有": 10278,
      "桃源": 10279,
      "不归": 10280,
      "奈何": 10281,
      "不禁": 10282,
      "东山": 10283,
      "洛阳": 10284,
      "肠断": 10285,
      "故山": 10286,
      "月满": 10287,
      "菊花": 10288,
      "云气": 10289,
      "多病": 10290,
      "从今": 10291,
      "山僧": 10292,
      "江城": 10293,
      "知有": 10294,
      "石上": 10295,
      "马上": 10296,
      "山前": 10297,
      "辛苦": 10298,
      "不待": 10299,
      "月中": 10300,
      "行行": 10301,
      "风来": 10302,
      "杜鹃": 10303,
      "梨花": 10304,
      "江海": 10305,
      "梦魂": 10306,
      "诗成": 10307,
      "冥冥": 10308,
      "日落": 10309,
      "竹林": 10310,
      "如水": 10311,
      "春山": 10312,
      "草色": 10313,
      "眼前": 10314,
      "风露": 10315,
      "如许": 10316,
      "梧桐": 10317,
      "此意": 10318,
      "别后": 10319,
      "容易": 10320,
      "独自": 10321,
      "自然": 10322,
      "行路": 10323,
      "中流": 10324,
      "飞花": 10325,
      "清溪": 10326,
      "疑是": 10327,
      "那堪": 10328,
      "向人": 10329,
      "秋月": 10330,
      "他乡": 10331,
      "偶然": 10332,
      "四时": 10333,
      "为我": 10334,
      "野人": 10335,
      "老夫": 10336,
      "琵琶": 10337,
      "人在": 10338,
      "怅望": 10339,
      "临水": 10340,
      "日夜": 10341,
      "家家": 10342,
      "谁识": 10343,
      "自在": 10344,
      "雨露": 10345,
      "自古": 10346,
      "那知": 10347,
      "山云": 10348,
      "莲花": 10349,
      "何在": 10350,
      "往还": 10351,
      "更无": 10352,
      "清秋": 10353,
      "不闻": 10354,
      "扬州": 10355,
      "风生": 10356,
      "啼鸟": 10357,
      "家山": 10358,
      "无奈": 10359,
      "长江": 10360,
      "客来": 10361,
      "重重": 10362,
      "正是": 10363,
      "是非": 10364,
      "今夕": 10365,
      "黄河": 10366,
      "人情": 10367,
      "从容": 10368,
      "昔年": 10369,
      "清光": 10370,
      "亭亭": 10371,
      "芦花": 10372,
      "江边": 10373,
      "玉树": 10374,
      "芳菲": 10375,
      "极目": 10376,
      "唯有": 10377,
      "清香": 10378,
      "白石": 10379,
      "冰雪": 10380,
      "秋雨": 10381,
      "随风": 10382,
      "一朝": 10383,
      "数声": 10384,
      "不开": 10385,
      "微风": 10386,
      "残月": 10387,
      "处士": 10388,
      "天际": 10389,
      "登高": 10390,
      "鸿雁": 10391,
      "云外": 10392,
      "客路": 10393,
      "闻说": 10394,
      "我欲": 10395,
      "晚来": 10396,
      "高人": 10397,
      "三尺": 10398,
      "同心": 10399,
      "未知": 10400,
      "牡丹": 10401,
      "莫问": 10402,
      "留得": 10403,
      "孤云": 10404,
      "岂无": 10405,
      "江东": 10406,
      "相亲": 10407,
      "蛾眉": 10408,
      "十分": 10409,
      "本无": 10410,
      "云深": 10411,
      "明年": 10412,
      "一树": 10413,
      "山深": 10414,
      "漫漫": 10415,
      "花发": 10416,
      "人去": 10417,
      "身世": 10418,
      "寸心": 10419,
      "有无": 10420,
      "高卧": 10421,
      "绿杨": 10422,
      "老僧": 10423,
      "渺渺": 10424,
      "！\n": 10425,
      "清夜": 10426,
      "见说": 10427,
      "烟水": 10428,
      "银河": 10429,
      "林间": 10430,
      "试问": 10431,
      "遥知": 10432,
      "多时": 10433,
      "虚空": 10434,
      "自笑": 10435,
      "送君": 10436,
      "不断": 10437,
      "袅袅": 10438,
      "冉冉": 10439,
      "此去": 10440,
      "池上": 10441,
      "凉风": 10442,
      "春日": 10443,
      "令人": 10444,
      "道路": 10445,
      "相忆": 10446,
      "胸中": 10447,
      "万年": 10448,
      "月华": 10449,
      "沧洲": 10450,
      "三日": 10451,
      "何为": 10452,
      "不应": 10453,
      "北风": 10454,
      "荷花": 10455,
      "半夜": 10456,
      "云间": 10457,
      "天台": 10458,
      "归心": 10459,
      "老子": 10460,
      "随处": 10461,
      "依稀": 10462,
      "尚有": 10463,
      "新月": 10464,
      "吟诗": 10465,
      "意气": 10466,
      "如有": 10467,
      "想见": 10468,
      "未有": 10469,
      "花下": 10470,
      "松柏": 10471,
      "枝头": 10472,
      "歌声": 10473,
      "鹧鸪": 10474,
      "一半": 10475,
      "雨中": 10476,
      "不动": 10477,
      "城郭": 10478,
      "庭前": 10479,
      "百花": 10480,
      "谁怜": 10481,
      "一望": 10482,
      "岁华": 10483,
      "忘机": 10484,
      "兄弟": 10485,
      "水中": 10486,
      "天边": 10487,
      "楼上": 10488,
      "谁是": 10489,
      "不厌": 10490,
      "未成": 10491,
      "夫子": 10492,
      "寄语": 10493,
      "琅玕": 10494,
      "东流": 10495,
      "武陵": 10496,
      "离别": 10497,
      "山光": 10498,
      "年少": 10499,
      "窗前": 10500,
      "鸡犬": 10501,
      "城南": 10502,
      "清凉": 10503,
      "溪流": 10504,
      "送客": 10505,
      "飞去": 10506,
      "人来": 10507,
      "十五": 10508,
      "碧玉": 10509,
      "艰难": 10510,
      "池塘": 10511,
      "时有": 10512,
      "薜萝": 10513,
      "只在": 10514,
      "暮雨": 10515,
      "杨花": 10516,
      "夕照": 10517,
      "干戈": 10518,
      "东篱": 10519,
      "经过": 10520,
      "万顷": 10521,
      "不足": 10522,
      "为问": 10523,
      "玲珑": 10524,
      "绿树": 10525,
      "缥缈": 10526,
      "生死": 10527,
      "西来": 10528,
      "不必": 10529,
      "无尘": 10530,
      "朝朝": 10531,
      "花前": 10532,
      "区区": 10533,
      "古来": 10534,
      "山阴": 10535,
      "相期": 10536,
      "笙歌": 10537,
      "造化": 10538,
      "幽居": 10539,
      "不负": 10540,
      "乘兴": 10541,
      "只今": 10542,
      "斯人": 10543,
      "迟迟": 10544,
      "世情": 10545,
      "春事": 10546,
      "鸟啼": 10547,
      "应是": 10548,
      "湖水": 10549,
      "眼中": 10550,
      "万物": 10551,
      "岁岁": 10552,
      "未可": 10553,
      "何许": 10554,
      "到此": 10555,
      "红叶": 10556,
      "远近": 10557,
      "雪满": 10558,
      "一醉": 10559,
      "客心": 10560,
      "杯酒": 10561,
      "芭蕉": 10562,
      "莫教": 10563,
      "始知": 10564,
      "春秋": 10565,
      "柳色": 10566,
      "欲问": 10567,
      "天意": 10568,
      "日长": 10569,
      "人意": 10570,
      "月落": 10571,
      "衣裳": 10572,
      "文字": 10573,
      "水上": 10574,
      "有情": 10575,
      "泉声": 10576,
      "鸡鸣": 10577,
      "便是": 10578,
      "名山": 10579,
      "次第": 10580,
      "苍生": 10581,
      "阴阴": 10582,
      "人知": 10583,
      "梦回": 10584,
      "渊明": 10585,
      "人不": 10586,
      "人世": 10587,
      "天气": 10588,
      "灯前": 10589,
      "盈盈": 10590,
      "已成": 10591,
      "镜中": 10592,
      "入梦": 10593,
      "所思": 10594,
      "书生": 10595,
      "凭栏": 10596,
      "无地": 10597,
      "相送": 10598,
      "不与": 10599,
      "淹留": 10600,
      "云飞": 10601,
      "南国": 10602,
      "钓鱼": 10603,
      "何由": 10604,
      "客愁": 10605,
      "最是": 10606,
      "薄暮": 10607,
      "行藏": 10608,
      "雨馀": 10609,
      "人语": 10610,
      "君看": 10611,
      "幽栖": 10612,
      "携手": 10613,
      "乡心": 10614,
      "一一": 10615,
      "南来": 10616,
      "城中": 10617,
      "白露": 10618,
      "相随": 10619,
      "长生": 10620,
      "无定": 10621,
      "一路": 10622,
      "不受": 10623,
      "万山": 10624,
      "当日": 10625,
      "湖海": 10626,
      "四面": 10627,
      "一家": 10628,
      "平安": 10629,
      "何处是": 10630,
      "明珠": 10631,
      "杖藜": 10632,
      "离离": 10633,
      "花间": 10634,
      "蝴蝶": 10635,
      "行乐": 10636,
      "诗句": 10637,
      "云水": 10638,
      "满眼": 10639,
      "笑语": 10640,
      "长松": 10641,
      "十万": 10642,
      "可惜": 10643,
      "太守": 10644,
      "空馀": 10645,
      "长啸": 10646,
      "谁道": 10647,
      "一番": 10648,
      "相过": 10649,
      "莺啼": 10650,
      "谁复": 10651,
      "高风": 10652,
      "江天": 10653,
      "相如": 10654,
      "仙家": 10655,
      "我心": 10656,
      "白鸟": 10657,
      "花影": 10658,
      "木叶": 10659,
      "阳春": 10660,
      "云生": 10661,
      "归梦": 10662,
      "浩荡": 10663,
      "北山": 10664,
      "疏雨": 10665,
      "翛然": 10666,
      "京华": 10667,
      "只恐": 10668,
      "可能": 10669,
      "对酒": 10670,
      "方知": 10671,
      "寥寥": 10672,
      "林泉": 10673,
      "空自": 10674,
      "封侯": 10675,
      "青灯": 10676,
      "五云": 10677,
      "不住": 10678,
      "前山": 10679,
      "玉堂": 10680,
      "老来": 10681,
      "随意": 10682,
      "两鬓": 10683,
      "宇宙": 10684,
      "樽酒": 10685,
      "眼看": 10686,
      "繁华": 10687,
      "交情": 10688,
      "尊前": 10689,
      "微雨": 10690,
      "三百": 10691,
      "儿孙": 10692,
      "君恩": 10693,
      "已无": 10694,
      "早晚": 10695,
      "九重": 10696,
      "千树": 10697,
      "寒云": 10698,
      "海门": 10699,
      "一别": 10700,
      "只是": 10701,
      "山高": 10702,
      "未曾": 10703,
      "泠泠": 10704,
      "风高": 10705,
      "高堂": 10706,
      "居士": 10707,
      "山月": 10708,
      "汉家": 10709,
      "潺湲": 10710,
      "牛羊": 10711,
      "稚子": 10712,
      "去不": 10713,
      "沉沉": 10714,
      "犹是": 10715,
      "关河": 10716,
      "小窗": 10717,
      "空有": 10718,
      "老人": 10719,
      "临流": 10720,
      "无计": 10721,
      "连天": 10722,
      "霏霏": 10723,
      "高树": 10724,
      "鸟声": 10725,
      "潇洒": 10726,
      "物外": 10727,
      "上林": 10728,
      "世路": 10729,
      "渔舟": 10730,
      "独倚": 10731,
      "一尊": 10732,
      "三山": 10733,
      "木兰": 10734,
      "相从": 10735,
      "一春": 10736,
      "东海": 10737,
      "楼阁": 10738,
      "溪头": 10739,
      "山人": 10740,
      "残雪": 10741,
      "沽酒": 10742,
      "须知": 10743,
      "男儿": 10744,
      "老树": 10745,
      "若何": 10746,
      "一双": 10747,
      "八月": 10748,
      "峰头": 10749,
      "带雨": 10750,
      "珊瑚": 10751,
      "鱼龙": 10752,
      "亦何": 10753,
      "今已": 10754,
      "湖光": 10755,
      "历历": 10756,
      "居然": 10757,
      "桑麻": 10758,
      "看云": 10759,
      "丈夫": 10760,
      "自从": 10761,
      "乔木": 10762,
      "婆娑": 10763,
      "梦到": 10764,
      "白马": 10765,
      "迢递": 10766,
      "隐隐": 10767,
      "春去": 10768,
      "秋气": 10769,
      "身在": 10770,
      "阶前": 10771,
      "不辞": 10772,
      "天高": 10773,
      "得意": 10774,
      "山上": 10775,
      "木落": 10776,
      "台上": 10777,
      "烟树": 10778,
      "风急": 10779,
      "开门": 10780,
      "深山": 10781,
      "如梦": 10782,
      "孤山": 10783,
      "长歌": 10784,
      "九日": 10785,
      "飞鸟": 10786,
      "不信": 10787,
      "二十": 10788,
      "微茫": 10789,
      "怀人": 10790,
      "飘飘": 10791,
      "不道": 10792,
      "旌旗": 10793,
      "未休": 10794,
      "赖有": 10795,
      "金陵": 10796,
      "一天": 10797,
      "南风": 10798,
      "枝上": 10799,
      "溪边": 10800,
      "白鹭": 10801,
      "睡起": 10802,
      "莫怪": 10803,
      "大江": 10804,
      "春愁": 10805,
      "世上": 10806,
      "几多": 10807,
      "子孙": 10808,
      "小楼": 10809,
      "山城": 10810,
      "青松": 10811,
      "一段": 10812,
      "乱山": 10813,
      "人行": 10814,
      "况复": 10815,
      "莫言": 10816,
      "风物": 10817,
      "鹦鹉": 10818,
      "一般": 10819,
      "山花": 10820,
      "新晴": 10821,
      "绿水": 10822,
      "中秋": 10823,
      "春意": 10824,
      "与谁": 10825,
      "亦无": 10826,
      "别来": 10827,
      "古道": 10828,
      "吾庐": 10829,
      "晚凉": 10830,
      "萧瑟": 10831,
      "蛟龙": 10832,
      "风清": 10833,
      "亦自": 10834,
      "人言": 10835,
      "濛濛": 10836,
      "片片": 10837,
      "竹枝": 10838,
      "中天": 10839,
      "北斗": 10840,
      "姓名": 10841,
      "归期": 10842,
      "无路": 10843,
      "未应": 10844,
      "窗外": 10845,
      "坐久": 10846,
      "堂堂": 10847,
      "总是": 10848,
      "慷慨": 10849,
      "我有": 10850,
      "日出": 10851,
      "柳条": 10852,
      "翡翠": 10853,
      "野老": 10854,
      "修竹": 10855,
      "尘土": 10856,
      "弟兄": 10857,
      "留客": 10858,
      "凭谁": 10859,
      "欲知": 10860,
      "云开": 10861,
      "一雨": 10862,
      "东风吹": 10863,
      "娟娟": 10864,
      "寒山": 10865,
      "日斜": 10866,
      "薰风": 10867,
      "一见": 10868,
      "不惜": 10869,
      "其如": 10870,
      "南枝": 10871,
      "无尽": 10872,
      "相寻": 10873,
      "秋草": 10874,
      "万象": 10875,
      "冰霜": 10876,
      "千尺": 10877,
      "新年": 10878,
      "无力": 10879,
      "满目": 10880,
      "山空": 10881,
      "此君": 10882,
      "等闲": 10883,
      "黄鹂": 10884,
      "万家": 10885,
      "一样": 10886,
      "人物": 10887,
      "如雪": 10888,
      "波涛": 10889,
      "潇潇": 10890,
      "赢得": 10891,
      "云烟": 10892,
      "月出": 10893,
      "死生": 10894,
      "长年": 10895,
      "陌上": 10896,
      "上下": 10897,
      "人烟": 10898,
      "吾生": 10899,
      "岂是": 10900,
      "望中": 10901,
      "瑶池": 10902,
      "踪迹": 10903,
      "四壁": 10904,
      "窗下": 10905,
      "莫向": 10906,
      "不出": 10907,
      "俯仰": 10908,
      "月影": 10909,
      "犬吠": 10910,
      "邂逅": 10911,
      "凄凄": 10912,
      "田家": 10913,
      "真成": 10914,
      "石桥": 10915,
      "经行": 10916,
      "西风吹": 10917,
      "酒醒": 10918,
      "几许": 10919,
      "此夜": 10920,
      "万重": 10921,
      "秋山": 10922,
      "难忘": 10923,
      "四十": 10924,
      "孤村": 10925,
      "淮南": 10926,
      "地僻": 10927,
      "小桥": 10928,
      "春梦": 10929,
      "相识": 10930,
      "时人": 10931,
      "柴扉": 10932,
      "渔樵": 10933,
      "莓苔": 10934,
      "大地": 10935,
      "孤灯": 10936,
      "愁人": 10937,
      "愁绝": 10938,
      "落落": 10939,
      "霜雪": 10940,
      "前村": 10941,
      "无所": 10942,
      "春云": 10943,
      "野色": 10944,
      "骑马": 10945,
      "一何": 10946,
      "一枕": 10947,
      "天公": 10948,
      "天心": 10949,
      "未了": 10950,
      "风味": 10951,
      "枕上": 10952,
      "落尽": 10953,
      "黄云": 10954,
      "客里": 10955,
      "酒家": 10956,
      "未央": 10957,
      "烟云": 10958,
      "终不": 10959,
      "老大": 10960,
      "上天": 10961,
      "双鬓": 10962,
      "堂前": 10963,
      "峥嵘": 10964,
      "坐看": 10965,
      "如云": 10966,
      "异乡": 10967,
      "忆昔": 10968,
      "斯文": 10969,
      "未全": 10970,
      "珠帘": 10971,
      "城市": 10972,
      "天香": 10973,
      "婵娟": 10974,
      "感慨": 10975,
      "未开": 10976,
      "窈窕": 10977,
      "长吟": 10978,
      "书来": 10979,
      "收拾": 10980,
      "更深": 10981,
      "有意": 10982,
      "须臾": 10983,
      "上方": 10984,
      "不寐": 10985,
      "人归": 10986,
      "兴亡": 10987,
      "岂知": 10988,
      "空庭": 10989,
      "高台": 10990,
      "他时": 10991,
      "双双": 10992,
      "吾家": 10993,
      "如可": 10994,
      "平地": 10995,
      "昔日": 10996,
      "无一事": 10997,
      "不分": 10998,
      "崔嵬": 10999,
      "惊起": 11000,
      "一灯": 11001,
      "却忆": 11002,
      "可是": 11003,
      "小雨": 11004,
      "岁暮": 11005,
      "寒烟": 11006,
      "已是": 11007,
      "自成": 11008,
      "一自": 11009,
      "出处": 11010,
      "归舟": 11011,
      "流光": 11012,
      "莫遣": 11013,
      "行客": 11014,
      "一夕": 11015,
      "人人": 11016,
      "平沙": 11017,
      "何物": 11018,
      "含情": 11019,
      "工夫": 11020,
      "萋萋": 11021,
      "不管": 11022,
      "云霄": 11023,
      "又见": 11024,
      "采莲": 11025,
      "图画": 11026,
      "悲歌": 11027,
      "本来": 11028,
      "荷叶": 11029,
      "七十": 11030,
      "江村": 11031,
      "风动": 11032,
      "楼头": 11033,
      "点点": 11034,
      "相与": 11035,
      "何足": 11036,
      "去住": 11037,
      "有酒": 11038,
      "瑶台": 11039,
      "相知": 11040,
      "谁言": 11041,
      "近来": 11042,
      "高阁": 11043,
      "世界": 11044,
      "归时": 11045,
      "时来": 11046,
      "特地": 11047,
      "茅檐": 11048,
      "未许": 11049,
      "满城": 11050,
      "中夜": 11051,
      "山雨": 11052,
      "未肯": 11053,
      "楼前": 11054,
      "眼明": 11055,
      "行云": 11056,
      "丹砂": 11057,
      "到家": 11058,
      "怀抱": 11059,
      "无因": 11060,
      "满庭": 11061,
      "出山": 11062,
      "宿雨": 11063,
      "此是": 11064,
      "花气": 11065,
      "莫作": 11066,
      "光阴": 11067,
      "天然": 11068,
      "客子": 11069,
      "沾衣": 11070,
      "生意": 11071,
      "不记": 11072,
      "二十年": 11073,
      "南浦": 11074,
      "声声": 11075,
      "离骚": 11076,
      "龙蛇": 11077,
      "不易": 11078,
      "头白": 11079,
      "沈沈": 11080,
      "泉石": 11081,
      "华发": 11082,
      "去来": 11083,
      "渡头": 11084,
      "湖边": 11085,
      "片云": 11086,
      "画船": 11087,
      "万木": 11088,
      "中人": 11089,
      "云霞": 11090,
      "湘水": 11091,
      "秋深": 11092,
      "圣主": 11093,
      "诗思": 11094,
      "万树": 11095,
      "入夜": 11096,
      "又是": 11097,
      "水晶": 11098,
      "秋云": 11099,
      "谁将": 11100,
      "中宵": 11101,
      "交游": 11102,
      "山路": 11103,
      "无由": 11104,
      "桥边": 11105,
      "白鹤": 11106,
      "童子": 11107,
      "诗情": 11108,
      "不关": 11109,
      "南州": 11110,
      "无边": 11111,
      "松竹": 11112,
      "渔父": 11113,
      "一线": 11114,
      "山灵": 11115,
      "平原": 11116,
      "无风": 11117,
      "自由": 11118,
      "过雨": 11119,
      "长在": 11120,
      "长沙": 11121,
      "龙门": 11122,
      "流年": 11123,
      "丘壑": 11124,
      "暗香": 11125,
      "远游": 11126,
      "高枕": 11127,
      "忽见": 11128,
      "一溪": 11129,
      "岂不": 11130,
      "应知": 11131,
      "手自": 11132,
      "江声": 11133,
      "沧波": 11134,
      "第几": 11135,
      "绿苔": 11136,
      "花时": 11137,
      "不因": 11138,
      "东君": 11139,
      "叶落": 11140,
      "星辰": 11141,
      "晓风": 11142,
      "片帆": 11143,
      "西东": 11144,
      "不起": 11145,
      "怜君": 11146,
      "欲尽": 11147,
      "翰墨": 11148,
      "蒹葭": 11149,
      "泪痕": 11150,
      "满林": 11151,
      "相依": 11152,
      "高秋": 11153,
      "十月": 11154,
      "向晚": 11155,
      "声名": 11156,
      "老翁": 11157,
      "著书": 11158,
      "隔岸": 11159,
      "刘郎": 11160,
      "飘然": 11161,
      "应无": 11162,
      "空林": 11163,
      "莫将": 11164,
      "谈笑": 11165,
      "中兴": 11166,
      "丰年": 11167,
      "乘风": 11168,
      "物华": 11169,
      "一回": 11170,
      "云雨": 11171,
      "寒梅": 11172,
      "无意": 11173,
      "登山": 11174,
      "离群": 11175,
      "野花": 11176,
      "难为": 11177,
      "城头": 11178,
      "寒泉": 11179,
      "毕竟": 11180,
      "胭脂": 11181,
      "非关": 11182,
      "堂上": 11183,
      "积雪": 11184,
      "红日": 11185,
      "草树": 11186,
      "难得": 11187,
      "不向": 11188,
      "前身": 11189,
      "水声": 11190,
      "还有": 11191,
      "露华": 11192,
      "与人": 11193,
      "九月": 11194,
      "只应": 11195,
      "太古": 11196,
      "得句": 11197,
      "拄杖": 11198,
      "江汉": 11199,
      "清泉": 11200,
      "溪桥": 11201,
      "雨雪": 11202,
      "不教": 11203,
      "之子": 11204,
      "安知": 11205,
      "相问": 11206,
      "落照": 11207,
      "逢君": 11208,
      "闭户": 11209,
      "功成": 11210,
      "指点": 11211,
      "未觉": 11212,
      "父老": 11213,
      "田园": 11214,
      "白昼": 11215,
      "销魂": 11216,
      "云影": 11217,
      "北望": 11218,
      "晓来": 11219,
      "此行": 11220,
      "自得": 11221,
      "造物": 11222,
      "锦绣": 11223,
      "高歌": 11224,
      "吹箫": 11225,
      "天真": 11226,
      "徙倚": 11227,
      "无赖": 11228,
      "远树": 11229,
      "三十六": 11230,
      "沧溟": 11231,
      "清流": 11232,
      "白蘋": 11233,
      "论文": 11234,
      "谷口": 11235,
      "长空": 11236,
      "风日": 11237,
      "八十": 11238,
      "维摩": 11239,
      "苍梧": 11240,
      "高低": 11241,
      "惭愧": 11242,
      "森森": 11243,
      "那能": 11244,
      "一卷": 11245,
      "不改": 11246,
      "乐事": 11247,
      "晴日": 11248,
      "红妆": 11249,
      "云根": 11250,
      "何之": 11251,
      "大道": 11252,
      "山青": 11253,
      "思量": 11254,
      "扶桑": 11255,
      "老病": 11256,
      "莺花": 11257,
      "镜里": 11258,
      "霓裳": 11259,
      "为爱": 11260,
      "九天": 11261,
      "寥落": 11262,
      "氤氲": 11263,
      "猿啼": 11264,
      "罗衣": 11265,
      "夜寒": 11266,
      "尊酒": 11267,
      "树影": 11268,
      "殊未": 11269,
      "洞天": 11270,
      "纤纤": 11271,
      "谁云": 11272,
      "北窗": 11273,
      "子规": 11274,
      "客思": 11275,
      "彷佛": 11276,
      "春江": 11277,
      "残阳": 11278,
      "苦吟": 11279,
      "行役": 11280,
      "庐山": 11281,
      "星斗": 11282,
      "清江": 11283,
      "一色": 11284,
      "不入": 11285,
      "天空": 11286,
      "已过": 11287,
      "河汉": 11288,
      "清阴": 11289,
      "相将": 11290,
      "篱落": 11291,
      "绝顶": 11292,
      "一任": 11293,
      "疏影": 11294,
      "轻舟": 11295,
      "一室": 11296,
      "万户": 11297,
      "个中": 11298,
      "却是": 11299,
      "去去": 11300,
      "大夫": 11301,
      "扰扰": 11302,
      "汉宫": 11303,
      "玉壶": 11304,
      "琉璃": 11305,
      "空谷": 11306,
      "花满": 11307,
      "草草": 11308,
      "莫愁": 11309,
      "衡门": 11310,
      "雪中": 11311,
      "鸥鹭": 11312,
      "叹息": 11313,
      "多事": 11314,
      "得似": 11315,
      "忘言": 11316,
      "松阴": 11317,
      "爽气": 11318,
      "三五": 11319,
      "倚栏": 11320,
      "团团": 11321,
      "朝阳": 11322,
      "风声": 11323,
      "乡关": 11324,
      "疏林": 11325,
      "朱门": 11326,
      "一梦": 11327,
      "三生": 11328,
      "从教": 11329,
      "山鸟": 11330,
      "忘却": 11331,
      "无生": 11332,
      "月光": 11333,
      "莫相": 11334,
      "远道": 11335,
      "五十": 11336,
      "半生": 11337,
      "西园": 11338,
      "一棹": 11339,
      "我爱": 11340,
      "斜晖": 11341,
      "石头": 11342,
      "阴晴": 11343,
      "三秋": 11344,
      "中年": 11345,
      "何意": 11346,
      "佳句": 11347,
      "几处": 11348,
      "宁知": 11349,
      "长城": 11350,
      "云树": 11351,
      "司马": 11352,
      "朱颜": 11353,
      "杜陵": 11354,
      "松下": 11355,
      "高处": 11356,
      "上有": 11357,
      "忽闻": 11358,
      "星河": 11359,
      "树色": 11360,
      "露湿": 11361,
      "□□□": 11362,
      "于此": 11363,
      "光辉": 11364,
      "昔人": 11365,
      "莫笑": 11366,
      "蝉声": 11367,
      "问讯": 11368,
      "东方": 11369,
      "深深": 11370,
      "留连": 11371,
      "百战": 11372,
      "等閒": 11373,
      "长日": 11374,
      "黄菊": 11375,
      "不死": 11376,
      "似水": 11377,
      "却笑": 11378,
      "晓日": 11379,
      "栖迟": 11380,
      "不独": 11381,
      "夜静": 11382,
      "幽香": 11383,
      "彭泽": 11384,
      "无际": 11385,
      "烽火": 11386,
      "高山": 11387,
      "升平": 11388,
      "各自": 11389,
      "脉脉": 11390,
      "莺声": 11391,
      "雪霜": 11392,
      "夜色": 11393,
      "应笑": 11394,
      "琴书": 11395,
      "高士": 11396,
      "可人": 11397,
      "积雨": 11398,
      "一种": 11399,
      "万国": 11400,
      "六朝": 11401,
      "红颜": 11402,
      "雁声": 11403,
      "一榻": 11404,
      "千门": 11405,
      "崎岖": 11406,
      "床头": 11407,
      "心自": 11408,
      "承恩": 11409,
      "人不见": 11410,
      "山家": 11411,
      "旧日": 11412,
      "玉人": 11413,
      "醉乡": 11414,
      "野寺": 11415,
      "馀生": 11416,
      "春风吹": 11417,
      "一字": 11418,
      "千岩": 11419,
      "山寺": 11420,
      "平湖": 11421,
      "来去": 11422,
      "樽前": 11423,
      "管弦": 11424,
      "风雷": 11425,
      "无可": 11426,
      "明时": 11427,
      "楼船": 11428,
      "相宜": 11429,
      "高峰": 11430,
      "一峰": 11431,
      "三春": 11432,
      "不容": 11433,
      "东林": 11434,
      "城下": 11435,
      "庭院": 11436,
      "事业": 11437,
      "坐对": 11438,
      "无此": 11439,
      "无用": 11440,
      "水清": 11441,
      "清梦": 11442,
      "独怜": 11443,
      "纵有": 11444,
      "孤峰": 11445,
      "来此": 11446,
      "眼底": 11447,
      "秦淮": 11448,
      "紫翠": 11449,
      "金门": 11450,
      "霄汉": 11451,
      "双飞": 11452,
      "叶叶": 11453,
      "清霜": 11454,
      "炊烟": 11455,
      "萧疏": 11456,
      "雨来": 11457,
      "不著": 11458,
      "因君": 11459,
      "多谢": 11460,
      "无聊": 11461,
      "疏钟": 11462,
      "老眼": 11463,
      "诸生": 11464,
      "隐几": 11465,
      "雪里": 11466,
      "鸟语": 11467,
      "几家": 11468,
      "宛转": 11469,
      "暮烟": 11470,
      "林深": 11471,
      "犹能": 11472,
      "蒲团": 11473,
      "不去": 11474,
      "晚晴": 11475,
      "清绝": 11476,
      "独醒": 11477,
      "猿鹤": 11478,
      "麒麟": 11479,
      "心期": 11480,
      "日夕": 11481,
      "时闻": 11482,
      "船头": 11483,
      "一官": 11484,
      "不平": 11485,
      "不许": 11486,
      "人自": 11487,
      "关情": 11488,
      "去国": 11489,
      "听雨": 11490,
      "四月": 11491,
      "思归": 11492,
      "松声": 11493,
      "青衫": 11494,
      "鸟道": 11495,
      "为报": 11496,
      "亭上": 11497,
      "前朝": 11498,
      "尘世": 11499,
      "暝色": 11500,
      "知我": 11501,
      "虚名": 11502,
      "何限": 11503,
      "傍人": 11504,
      "家贫": 11505,
      "微吟": 11506,
      "耿耿": 11507,
      "蓬蒿": 11508,
      "西南": 11509,
      "诗酒": 11510,
      "谁谓": 11511,
      "钱塘": 11512,
      "垂垂": 11513,
      "逢春": 11514,
      "入云": 11515,
      "无俗": 11516,
      "有遗": 11517,
      "雪后": 11518,
      "一带": 11519,
      "匹马": 11520,
      "吹笛": 11521,
      "招隐": 11522,
      "日照": 11523,
      "未尽": 11524,
      "滔滔": 11525,
      "青草": 11526,
      "后人": 11527,
      "忽惊": 11528,
      "悬知": 11529,
      "搔首": 11530,
      "柳絮": 11531,
      "欲去": 11532,
      "流莺": 11533,
      "碧天": 11534,
      "采药": 11535,
      "飞絮": 11536,
      "不问": 11537,
      "倚杖": 11538,
      "凭高": 11539,
      "名园": 11540,
      "四方": 11541,
      "声中": 11542,
      "家风": 11543,
      "征衣": 11544,
      "心如": 11545,
      "无恙": 11546,
      "此夕": 11547,
      "浊酒": 11548,
      "浩浩": 11549,
      "渡江": 11550,
[...]
